{
  "version": "1.0",
  "truncation": null,
  "padding": null,
  "added_tokens": [
    {
      "id": 0,
      "content": "<|endoftext|>",
      "single_word": false,
      "lstrip": false,
      "rstrip": false,
      "normalized": false,
      "special": true
    },
    {
      "id": 1,
      "content": "<|unk|>",
      "single_word": false,
      "lstrip": false,
      "rstrip": false,
      "normalized": false,
      "special": true
    }
  ],
  "normalizer": null,
  "pre_tokenizer": {
    "type": "ByteLevel",
    "add_prefix_space": false,
    "trim_offsets": true,
    "use_regex": true
  },
  "post_processor": null,
  "decoder": {
    "type": "ByteLevel",
    "add_prefix_space": true,
    "trim_offsets": true,
    "use_regex": true
  },
  "model": {
    "type": "BPE",
    "dropout": null,
    "unk_token": "<|unk|>",
    "continuing_subword_prefix": null,
    "end_of_word_suffix": null,
    "fuse_unk": false,
    "byte_fallback": false,
    "ignore_merges": false,
    "vocab": {
      "<|endoftext|>": 0,
      "<|unk|>": 1,
      "!": 2,
      "\"": 3,
      "#": 4,
      "$": 5,
      "%": 6,
      "&": 7,
      "'": 8,
      "(": 9,
      ")": 10,
      "*": 11,
      "+": 12,
      ",": 13,
      "-": 14,
      ".": 15,
      "/": 16,
      "0": 17,
      "1": 18,
      "2": 19,
      "3": 20,
      "4": 21,
      "5": 22,
      "6": 23,
      "7": 24,
      "8": 25,
      "9": 26,
      ":": 27,
      ";": 28,
      "=": 29,
      ">": 30,
      "?": 31,
      "@": 32,
      "A": 33,
      "B": 34,
      "C": 35,
      "D": 36,
      "E": 37,
      "F": 38,
      "G": 39,
      "H": 40,
      "I": 41,
      "J": 42,
      "K": 43,
      "L": 44,
      "M": 45,
      "N": 46,
      "O": 47,
      "P": 48,
      "Q": 49,
      "R": 50,
      "S": 51,
      "T": 52,
      "U": 53,
      "V": 54,
      "W": 55,
      "X": 56,
      "Y": 57,
      "Z": 58,
      "[": 59,
      "\\": 60,
      "]": 61,
      "^": 62,
      "_": 63,
      "`": 64,
      "a": 65,
      "b": 66,
      "c": 67,
      "d": 68,
      "e": 69,
      "f": 70,
      "g": 71,
      "h": 72,
      "i": 73,
      "j": 74,
      "k": 75,
      "l": 76,
      "m": 77,
      "n": 78,
      "o": 79,
      "p": 80,
      "q": 81,
      "r": 82,
      "s": 83,
      "t": 84,
      "u": 85,
      "v": 86,
      "w": 87,
      "x": 88,
      "y": 89,
      "z": 90,
      "{": 91,
      "|": 92,
      "}": 93,
      "~": 94,
      "ĉ": 95,
      "Ċ": 96,
      "Ġ": 97,
      "ġ": 98,
      "Ġt": 99,
      "he": 100,
      "ou": 101,
      "in": 102,
      "Ġa": 103,
      "Ġs": 104,
      "Ġw": 105,
      "Ġm": 106,
      "Ġy": 107,
      "re": 108,
      "on": 109,
      "Ġthe": 110,
      "Ġyou": 111,
      "Ġb": 112,
      "ve": 113,
      "Ġl": 114,
      "nd": 115,
      "ll": 116,
      "ha": 117,
      "Ġd": 118,
      "Ġf": 119,
      "Ġc": 120,
      "it": 121,
      "ing": 122,
      "ĠI": 123,
      "Ġg": 124,
      "Ġto": 125,
      "ow": 126,
      "Ġn": 127,
      "an": 128,
      "or": 129,
      "is": 130,
      "me": 131,
      "Ġme": 132,
      "ay": 133,
      "ee": 134,
      "Ġo": 135,
      "ar": 136,
      "hat": 137,
      "ke": 138,
      "Ġp": 139,
      "st": 140,
      "er": 141,
      "'s": 142,
      "gh": 143,
      "Ġin": 144,
      "Ġbe": 145,
      "ot": 146,
      "Ġit": 147,
      "'t": 148,
      "Ġand": 149,
      "Ġon": 150,
      "Ġhe": 151,
      "Ġmy": 152,
      "es": 153,
      "Ġh": 154,
      "et": 155,
      "ver": 156,
      "se": 157,
      "Ġof": 158,
      "Ġth": 159,
      "Ġe": 160,
      "ld": 161,
      "Ġlo": 162,
      "Ġk": 163,
      "ght": 164,
      "le": 165,
      "Ġli": 166,
      "at": 167,
      "Ġr": 168,
      "ome": 169,
      "And": 170,
      "Ġst": 171,
      "ut": 172,
      "Ġthat": 173,
      "Ġyour": 174,
      "Ġha": 175,
      "Ġu": 176,
      "ac": 177,
      "'m": 178,
      "You": 179,
      "id": 180,
      "Ġwe": 181,
      "ight": 182,
      "as": 183,
      "ad": 184,
      "ed": 185,
      "The": 186,
      "oo": 187,
      "Ġkn": 188,
      "Ġfor": 189,
      "ill": 190,
      "Ġis": 191,
      "Ġlove": 192,
      "out": 193,
      "Ġcan": 194,
      "ust": 195,
      "ake": 196,
      "ith": 197,
      "Ġall": 198,
      "al": 199,
      "Ġknow": 200,
      "om": 201,
      "ic": 202,
      "Ġre": 203,
      "ir": 204,
      "one": 205,
      "Ġdo": 206,
      "Ġj": 207,
      "ea": 208,
      "en": 209,
      "all": 210,
      "Ġwith": 211,
      "hen": 212,
      "Ġgo": 213,
      "own": 214,
      "ly": 215,
      "'re": 216,
      "art": 217,
      "ime": 218,
      "Ġso": 219,
      "ind": 220,
      "Ġup": 221,
      "ur": 222,
      "ould": 223,
      "ant": 224,
      "Ġdon": 225,
      "Ġlike": 226,
      "ain": 227,
      "un": 228,
      "'ll": 229,
      "Ġgot": 230,
      "ab": 231,
      "Ġne": 232,
      "ch": 233,
      "Ġno": 234,
      "Ġsee": 235,
      "ong": 236,
      "ore": 237,
      "ell": 238,
      "ie": 239,
      "Ġtr": 240,
      "au": 241,
      "Ġget": 242,
      "Ġjust": 243,
      "Ġsh": 244,
      "But": 245,
      "Ġwhat": 246,
      "op": 247,
      "rou": 248,
      "her": 249,
      "ack": 250,
      "way": 251,
      "Ġout": 252,
      "Ġthis": 253,
      "am": 254,
      "Ġwh": 255,
      "hing": 256,
      "Ġnot": 257,
      "if": 258,
      "Ġan": 259,
      "Ġfr": 260,
      "It": 261,
      "na": 262,
      "Ġtime": 263,
      "very": 264,
      "Ġwant": 265,
      "Ġwas": 266,
      "Ġwor": 267,
      "Ġdown": 268,
      "ck": 269,
      "ce": 270,
      "'ve": 271,
      "ion": 272,
      "Ġal": 273,
      "nt": 274,
      "Ġfee": 275,
      "us": 276,
      "Ġsome": 277,
      "aby": 278,
      "ide": 279,
      "ive": 280,
      "and": 281,
      "od": 282,
      "Ġone": 283,
      "ame": 284,
      "ig": 285,
      "ause": 286,
      "Ġare": 287,
      "il": 288,
      "Ġnow": 289,
      "Ġbl": 290,
      "We": 291,
      "ter": 292,
      "eep": 293,
      "ood": 294,
      "Ġfeel": 295,
      "Ġsay": 296,
      "ear": 297,
      "Ġnever": 298,
      "Ġas": 299,
      "Ġhave": 300,
      "Ġwill": 301,
      "here": 302,
      "ine": 303,
      "fe": 304,
      "Ġway": 305,
      "Ġ(": 306,
      "Ġwhen": 307,
      "eah": 308,
      "im": 309,
      "Ġcr": 310,
      "Ġcome": 311,
      "He": 312,
      "Ġthey": 313,
      "eed": 314,
      "Ġthere": 315,
      "Ġat": 316,
      "Ġday": 317,
      "Ġmake": 318,
      "Oh": 319,
      "ast": 320,
      "Ġshe": 321,
      "Ġbaby": 322,
      "Ġheart": 323,
      "Ġher": 324,
      "ink": 325,
      "han": 326,
      "een": 327,
      "ge": 328,
      "So": 329,
      "um": 330,
      "ace": 331,
      "Ġfrom": 332,
      "our": 333,
      "When": 334,
      "Ġback": 335,
      "Ġsa": 336,
      "Ġpl": 337,
      "pp": 338,
      "..": 339,
      "Ġman": 340,
      "ess": 341,
      "Ġevery": 342,
      "Ġlet": 343,
      "thing": 344,
      "ue": 345,
      "Ġde": 346,
      "ok": 347,
      "Ġbr": 348,
      "urn": 349,
      "Ġneed": 350,
      "onna": 351,
      "Ġaway": 352,
      "itt": 353,
      "Ġbut": 354,
      "Ġtake": 355,
      "Ġsp": 356,
      "Ġnight": 357,
      "That": 358,
      "alk": 359,
      "Ġcould": 360,
      "old": 361,
      "round": 362,
      "Th": 363,
      "Ġlife": 364,
      "ody": 365,
      "Ġoh": 366,
      "ak": 367,
      "ist": 368,
      "Ġab": 369,
      "Ġif": 370,
      "If": 371,
      "irl": 372,
      "Ġgonna": 373,
      "ove": 374,
      "Ġro": 375,
      "Ġag": 376,
      "Ġthing": 377,
      "Wh": 378,
      "Ġhere": 379,
      "are": 380,
      "She": 381,
      "Ġright": 382,
      "Ġby": 383,
      "Ġbeen": 384,
      "Ġpr": 385,
      "Ġdr": 386,
      "ream": 387,
      "Ġwon": 388,
      "To": 389,
      "Ch": 390,
      "ound": 391,
      "Ġcl": 392,
      "Ġthink": 393,
      "Ġ'": 394,
      "Ġgood": 395,
      "Ġwho": 396,
      "Ġmore": 397,
      "In": 398,
      "Ġworld": 399,
      "ittle": 400,
      "Ġyeah": 401,
      "Ġey": 402,
      "ven": 403,
      "Cause": 404,
      "rough": 405,
      "ry": 406,
      "Ġlook": 407,
      "Ġgirl": 408,
      "On": 409,
      "ile": 410,
      "Ġagain": 411,
      "ure": 412,
      "Ġhow": 413,
      "Ġtell": 414,
      "ving": 415,
      "ose": 416,
      "'d": 417,
      "All": 418,
      "body": 419,
      "ĠM": 420,
      "Don": 421,
      "other": 422,
      "uck": 423,
      "ol": 424,
      "ĠS": 425,
      "There": 426,
      "Ġtoo": 427,
      "Ġlittle": 428,
      "ct": 429,
      "Ġabout": 430,
      "os": 431,
      "No": 432,
      "Ġlong": 433,
      "oy": 434,
      "Ġain": 435,
      "Ġour": 436,
      "My": 437,
      "Ġthrough": 438,
      "el": 439,
      "ick": 440,
      "What": 441,
      "Ġsw": 442,
      "Ġfl": 443,
      "Now": 444,
      "ate": 445,
      "Ġhear": 446,
      "ag": 447,
      "Ġsl": 448,
      "ree": 449,
      "iss": 450,
      "Ġgive": 451,
      "Ġonly": 452,
      "Ġus": 453,
      "Ġeyes": 454,
      "Ġv": 455,
      "Ġgr": 456,
      "ies": 457,
      "Ġle": 458,
      "Ġwould": 459,
      "ire": 460,
      "Ġaround": 461,
      "Just": 462,
      "Ġor": 463,
      "ul": 464,
      "Ġhome": 465,
      "Ġkeep": 466,
      "Ġwhere": 467,
      "Ġch": 468,
      "ers": 469,
      "Ġany": 470,
      "Ġover": 471,
      "Ġdream": 472,
      "Ġsaid": 473,
      "nder": 474,
      "Some": 475,
      "Ġam": 476,
      "Ġhad": 477,
      "Ġwa": 478,
      "Ġbel": 479,
      "ap": 480,
      "ĠL": 481,
      "Ġmind": 482,
      "lf": 483,
      "ĠB": 484,
      "Ġbre": 485,
      "th": 486,
      "Ġfind": 487,
      "Ġstr": 488,
      "Ġcom": 489,
      "Ġhis": 490,
      "Ġhand": 491,
      "ough": 492,
      "Ġwere": 493,
      "They": 494,
      "igg": 495,
      "ways": 496,
      "uch": 497,
      "Ġlea": 498,
      "Ġtry": 499,
      "Ġbet": 500,
      "ally": 501,
      "orn": 502,
      "Ġever": 503,
      "orus": 504,
      "ĠG": 505,
      "Ġchan": 506,
      "Ġrun": 507,
      "Ġsha": 508,
      "ent": 509,
      "Ġstill": 510,
      "sed": 511,
      "ip": 512,
      "Ġlight": 513,
      "anna": 514,
      "oke": 515,
      "St": 516,
      "Ġcall": 517,
      "ade": 518,
      "ds": 519,
      "Chorus": 520,
      "Ġturn": 521,
      "ta": 522,
      "Ġse": 523,
      "Ġfall": 524,
      "side": 525,
      "Ġdid": 526,
      "For": 527,
      "Ġlive": 528,
      "ice": 529,
      "Let": 530,
      "to": 531,
      "With": 532,
      "ft": 533,
      "ation": 534,
      "oh": 535,
      "Ġwanna": 536,
      "Ġwr": 537,
      "Ġcon": 538,
      "ave": 539,
      "Ġthem": 540,
      "Ġsm": 541,
      "Every": 542,
      "ise": 543,
      "Well": 544,
      "Ġla": 545,
      "Ġalways": 546,
      "Ġmo": 547,
      "self": 548,
      "This": 549,
      "ieve": 550,
      "ty": 551,
      "cause": 552,
      "day": 553,
      "ber": 554,
      "ĠC": 555,
      "qu": 556,
      "ĠJ": 557,
      "get": 558,
      "Ġwait": 559,
      "Ġoff": 560,
      "Ġhold": 561,
      "ase": 562,
      "Ġsk": 563,
      "Ġthings": 564,
      "ool": 565,
      "Ġhar": 566,
      "Ġpe": 567,
      "Ġsc": 568,
      "ang": 569,
      "Ġsun": 570,
      "igh": 571,
      "ied": 572,
      "az": 573,
      "em": 574,
      "Ġgone": 575,
      "ild": 576,
      "atch": 577,
      "Ġthan": 578,
      "Ġplay": 579,
      "ms": 580,
      "...": 581,
      "ull": 582,
      "Ġhead": 583,
      "ng": 584,
      "ew": 585,
      "Ġhim": 586,
      "ĠA": 587,
      "fore": 588,
      "Ġwalk": 589,
      "iend": 590,
      "Ġwhy": 591,
      "ble": 592,
      "ike": 593,
      "Ġthen": 594,
      "Yeah": 595,
      "oney": 596,
      "ĠD": 597,
      "ous": 598,
      "ite": 599,
      "ought": 600,
      "Ġmuch": 601,
      "ach": 602,
      "Ġbelieve": 603,
      "ked": 604,
      "Ġold": 605,
      "Your": 606,
      "ĠH": 607,
      "ance": 608,
      "der": 609,
      "oll": 610,
      "eet": 611,
      "Ġbetter": 612,
      "Ġleave": 613,
      "Ġend": 614,
      "Ġnothing": 615,
      "Ġtw": 616,
      "ish": 617,
      "ook": 618,
      "ears": 619,
      "ret": 620,
      "ity": 621,
      "Ġsing": 622,
      "onight": 623,
      "ass": 624,
      "Be": 625,
      "Ġcry": 626,
      "Ġya": 627,
      "be": 628,
      "Ġnigg": 629,
      "Ġboy": 630,
      "Ġstop": 631,
      "Ġinto": 632,
      "Ġalone": 633,
      "Ġshould": 634,
      "ople": 635,
      "ord": 636,
      "How": 637,
      "ath": 638,
      "Ġreally": 639,
      "Ġunder": 640,
      "Ġstay": 641,
      "Ġgu": 642,
      "Ġen": 643,
      "Ġsu": 644,
      "ark": 645,
      "Ġhard": 646,
      "row": 647,
      "ady": 648,
      "ting": 649,
      "Ġreal": 650,
      "ever": 651,
      "Ġfriend": 652,
      "Ġstart": 653,
      "Ġhapp": 654,
      "Ġcare": 655,
      "pe": 656,
      "Ġface": 657,
      "ock": 658,
      "Ġtalk": 659,
      "ning": 660,
      "ss": 661,
      "ah": 662,
      "Who": 663,
      "Ġshow": 664,
      "Do": 665,
      "Ġbreak": 666,
      "ther": 667,
      "Ġsong": 668,
      "lease": 669,
      "Ġar": 670,
      "Ġnew": 671,
      "Ġmade": 672,
      "Ġstand": 673,
      "Ġleft": 674,
      "Ġrain": 675,
      "vin": 676,
      "Can": 677,
      "Come": 678,
      "ĠT": 679,
      "red": 680,
      "ars": 681,
      "Ġbit": 682,
      "Is": 683,
      "Ġgotta": 684,
      "Like": 685,
      "Ġplace": 686,
      "Ġlast": 687,
      "Ġtonight": 688,
      "Ġname": 689,
      "Ġaf": 690,
      "wn": 691,
      "Ġgoing": 692,
      "Ġsomething": 693,
      "Ġbefore": 694,
      "ĠR": 695,
      "Where": 696,
      "Ġmay": 697,
      "Ġex": 698,
      "oul": 699,
      "Ġmine": 700,
      "Ġpeople": 701,
      "Ġinside": 702,
      "Ġhas": 703,
      "Ġeven": 704,
      "iz": 705,
      "Ġgl": 706,
      "Ġwrong": 707,
      "Ġ\"": 708,
      "Ġsweet": 709,
      "Ġput": 710,
      "ĠP": 711,
      "Ġeverything": 712,
      "ny": 713,
      "Ġhigh": 714,
      "Ġthese": 715,
      "ard": 716,
      "Ġthought": 717,
      "Ġtheir": 718,
      "Ġfree": 719,
      "Ġhop": 720,
      "mber": 721,
      "oss": 722,
      "Why": 723,
      "As": 724,
      "Ġun": 725,
      "Ġsoul": 726,
      "Ġcha": 727,
      "Ġanother": 728,
      "Ġtrue": 729,
      "ra": 730,
      "Ġown": 731,
      "Ġwind": 732,
      "Then": 733,
      "Baby": 734,
      "Fr": 735,
      "Ġqu": 736,
      "Ġsame": 737,
      "Ġother": 738,
      "Hey": 739,
      "Re": 740,
      "time": 741,
      "One": 742,
      "Ġstre": 743,
      "Ġmean": 744,
      "Ġfeeling": 745,
      "Ġgre": 746,
      "Ġlost": 747,
      "Ġpart": 748,
      "ount": 749,
      "Ġbad": 750,
      "oom": 751,
      "mor": 752,
      "hes": 753,
      "oc": 754,
      "Ġfuck": 755,
      "pl": 756,
      "Ġpain": 757,
      "member": 758,
      "Love": 759,
      "est": 760,
      "Ġfar": 761,
      "Take": 762,
      "ling": 763,
      "Ġbu": 764,
      "ness": 765,
      "Ġfire": 766,
      "mer": 767,
      "Ġside": 768,
      "Ġ-": 769,
      "Ġcar": 770,
      "Ġkiss": 771,
      "Ġblue": 772,
      "orever": 773,
      "Ġdone": 774,
      "Ġdays": 775,
      "Ġdie": 776,
      "Ġda": 777,
      "Not": 778,
      "Ġburn": 779,
      "Ġhur": 780,
      "Ġmyself": 781,
      "Ġfa": 782,
      "Got": 783,
      "ye": 784,
      "Ġdoor": 785,
      "Ġchange": 786,
      "hed": 787,
      "age": 788,
      "ost": 789,
      "Get": 790,
      "ff": 791,
      "Ġmust": 792,
      "Ġmoney": 793,
      "Ġfound": 794,
      "lp": 795,
      "Ġrock": 796,
      "Ġche": 797,
      "Ġroll": 798,
      "aking": 799,
      "gether": 800,
      "per": 801,
      "Ġfly": 802,
      "ater": 803,
      "ather": 804,
      "Ġsky": 805,
      "Ġtwo": 806,
      "Ġem": 807,
      "ĠGod": 808,
      "Ġenough": 809,
      "Ġwork": 810,
      "Ġbring": 811,
      "Ġhat": 812,
      "where": 813,
      "pen": 814,
      "pt": 815,
      "Ġcame": 816,
      "Ġsleep": 817,
      "Ġmight": 818,
      "Ġtown": 819,
      "Ġtou": 820,
      "ud": 821,
      "Ġwar": 822,
      "Ġbeg": 823,
      "Ġshit": 824,
      "oot": 825,
      "ps": 826,
      "Ġdis": 827,
      "Ġknew": 828,
      "Ġwell": 829,
      "Ġkind": 830,
      "Ġwithout": 831,
      "less": 832,
      "Ġbig": 833,
      "les": 834,
      "irst": 835,
      "Ġhands": 836,
      "Ġlone": 837,
      "Ġmorn": 838,
      "Sh": 839,
      "isten": 840,
      "Ġfool": 841,
      "Tell": 842,
      "Or": 843,
      "ĠN": 844,
      "Ġtogether": 845,
      "ĠF": 846,
      "Ġcold": 847,
      "Ġcomes": 848,
      "ond": 849,
      "ts": 850,
      "azy": 851,
      "Ġel": 852,
      "Ġwatch": 853,
      "Ġstreet": 854,
      "Ġthose": 855,
      "ug": 856,
      "ne": 857,
      "Ġdreams": 858,
      "Ġste": 859,
      "right": 860,
      "ĠYou": 861,
      "Ġmove": 862,
      "Ġdoes": 863,
      "Ġwonder": 864,
      "Ġremember": 865,
      "Ġmiss": 866,
      "ump": 867,
      "Ġfight": 868,
      "',": 869,
      "sh": 870,
      "Ġforever": 871,
      "Ġdes": 872,
      "Ġclose": 873,
      "Ġfun": 874,
      "atter": 875,
      "aught": 876,
      "end": 877,
      "Ġbest": 878,
      "Ġsomeone": 879,
      "anc": 880,
      "asy": 881,
      "Ġtold": 882,
      "Look": 883,
      "Ġmany": 884,
      "Ġhope": 885,
      "Ġdidn": 886,
      "Ġsure": 887,
      "Ġkill": 888,
      "Ġdark": 889,
      "Ġnigga": 890,
      "iver": 891,
      "Ġhey": 892,
      "aw": 893,
      "ows": 894,
      "Ġwords": 895,
      "From": 896,
      "Ġhelp": 897,
      "stand": 898,
      "Ġhea": 899,
      "Ġcoming": 900,
      "oor": 901,
      "Ġbroke": 902,
      "Ġdance": 903,
      "ash": 904,
      "ason": 905,
      "Ġgoes": 906,
      "Ġna": 907,
      "ĠK": 908,
      "Ġsmile": 909,
      "ci": 910,
      "Ġwish": 911,
      "Ġlonely": 912,
      "ory": 913,
      "Ġtouch": 914,
      "ipp": 915,
      "oman": 916,
      "Ġchild": 917,
      "Ġused": 918,
      "ign": 919,
      "Ġplease": 920,
      "tr": 921,
      "ict": 922,
      "ful": 923,
      "ntil": 924,
      "Ġtimes": 925,
      "Ġho": 926,
      "ĠCh": 927,
      "Ġbeat": 928,
      "ĠW": 929,
      "Ġknows": 930,
      "times": 931,
      "usic": 932,
      "Ġseen": 933,
      "Ġline": 934,
      "Ġmoon": 935,
      "Ġgame": 936,
      "Ġmorning": 937,
      "Ġsur": 938,
      "dy": 939,
      "Ġsin": 940,
      "hind": 941,
      "Ġwaiting": 942,
      "Ġsound": 943,
      "Ġbot": 944,
      "Ġcrazy": 945,
      "ings": 946,
      "ren": 947,
      "Of": 948,
      "Ġpre": 949,
      "app": 950,
      "See": 951,
      "rist": 952,
      "ub": 953,
      "Ġunderstand": 954,
      "bye": 955,
      "ĠĠ": 956,
      "Ġwhile": 957,
      "Ġyourself": 958,
      "Ġte": 959,
      "Ġdeep": 960,
      "Ġfirst": 961,
      "Ġdi": 962,
      "Ġmatter": 963,
      "aut": 964,
      "ĠE": 965,
      "Ġelse": 966,
      "Ġtook": 967,
      "Ġask": 968,
      "Ġpret": 969,
      "Never": 970,
      "uc": 971,
      "Ġroad": 972,
      "ouse": 973,
      "Ġlose": 974,
      "Ġyoung": 975,
      "Ġmother": 976,
      "Ġarms": 977,
      "Ġheard": 978,
      "Ġstar": 979,
      "Here": 980,
      "Ġhappy": 981,
      "Ġride": 982,
      "Ġlate": 983,
      "Ġbeaut": 984,
      "imp": 985,
      "Ġdead": 986,
      "Ġbehind": 987,
      "ife": 988,
      "Ġopen": 989,
      "Ġblack": 990,
      "Ġtre": 991,
      "ia": 992,
      "ions": 993,
      "ush": 994,
      "Ġlooking": 995,
      "Give": 996,
      "Ġmakes": 997,
      "Ġhell": 998,
      "Ġtoday": 999,
      "Ġcle": 1000,
      "Ġstrong": 1001,
      "May": 1002,
      "ans": 1003,
      "Ġfriends": 1004,
      "Ġlot": 1005,
      "ĠLord": 1006,
      "Ġwoman": 1007,
      "Ġmusic": 1008,
      "ort": 1009,
      "Ġcause": 1010,
      "now": 1011,
      "Ġac": 1012,
      "Ġforget": 1013,
      "ix": 1014,
      "Ġhot": 1015,
      "Ġalong": 1016,
      "Ġafter": 1017,
      "Make": 1018,
      "An": 1019,
      "Ġset": 1020,
      "ker": 1021,
      "Ġtears": 1022,
      "Ġalright": 1023,
      "ama": 1024,
      "og": 1025,
      "Ġwhole": 1026,
      "hy": 1027,
      "Ġhit": 1028,
      "Ġonce": 1029,
      "act": 1030,
      "ob": 1031,
      "Ġreason": 1032,
      "Yes": 1033,
      "ail": 1034,
      "Ġad": 1035,
      "Ġper": 1036,
      "Go": 1037,
      "Ġpass": 1038,
      "iving": 1039,
      "tin": 1040,
      "Ġpray": 1041,
      "Ġsec": 1042,
      "lin": 1043,
      "uth": 1044,
      "Ġlear": 1045,
      "Ġyears": 1046,
      "Ġheaven": 1047,
      "Bl": 1048,
      "Al": 1049,
      "Ġliving": 1050,
      "Ġbody": 1051,
      "gel": 1052,
      "Ġits": 1053,
      "Ġlisten": 1054,
      "ane": 1055,
      "led": 1056,
      "Ġco": 1057,
      "Ġwall": 1058,
      "ment": 1059,
      "Ġgetting": 1060,
      "Ġground": 1061,
      "iful": 1062,
      "Ġeasy": 1063,
      "Ġround": 1064,
      "ich": 1065,
      "que": 1066,
      "uh": 1067,
      "Ġlie": 1068,
      "Ġanything": 1069,
      "Will": 1070,
      "up": 1071,
      "Ġwent": 1072,
      "ollow": 1073,
      "Ġbed": 1074,
      "Ġlover": 1075,
      "Ġap": 1076,
      "Ġwater": 1077,
      "Ġblood": 1078,
      "ize": 1079,
      "Ġsaw": 1080,
      "ĠChrist": 1081,
      "Ġchance": 1082,
      "Ġwin": 1083,
      "Ġhappen": 1084,
      "ary": 1085,
      "Ooh": 1086,
      "eak": 1087,
      "Ġair": 1088,
      "Ġsad": 1089,
      "Ġslow": 1090,
      "vil": 1091,
      "Ġdar": 1092,
      "oment": 1093,
      "Ġsomebody": 1094,
      "Ġcount": 1095,
      "Ġhate": 1096,
      "mas": 1097,
      "ring": 1098,
      "Maybe": 1099,
      "Ġhide": 1100,
      "Ġfine": 1101,
      "xt": 1102,
      "Ġready": 1103,
      "umb": 1104,
      "Ġlearn": 1105,
      "Ġmoment": 1106,
      "Ġroom": 1107,
      "ress": 1108,
      "Ġalive": 1109,
      "Ġhurt": 1110,
      "Ġstars": 1111,
      "ying": 1112,
      "Ġnobody": 1113,
      "Ġguess": 1114,
      "Ġvery": 1115,
      "Keep": 1116,
      "Ġlau": 1117,
      "Ġbroken": 1118,
      "Ġabove": 1119,
      "Ġmemor": 1120,
      "Ġhouse": 1121,
      "Are": 1122,
      "Ġsea": 1123,
      "Ġblow": 1124,
      "Ġi": 1125,
      "Ġfeet": 1126,
      "Ġrunning": 1127,
      "light": 1128,
      "Ġniggas": 1129,
      "come": 1130,
      "Say": 1131,
      "Ġvo": 1132,
      "ins": 1133,
      "Ġeach": 1134,
      "Ġland": 1135,
      "ĠO": 1136,
      "Ġyo": 1137,
      "Ġgoodbye": 1138,
      "Ġtrying": 1139,
      "te": 1140,
      "Ġtruth": 1141,
      "Ġrest": 1142,
      "outh": 1143,
      "ung": 1144,
      "io": 1145,
      "Ġgirls": 1146,
      "Ġgun": 1147,
      "Ġsave": 1148,
      "Ġbitch": 1149,
      "Ġooh": 1150,
      "Ġass": 1151,
      "hh": 1152,
      "eel": 1153,
      "ma": 1154,
      "ues": 1155,
      "Ġfin": 1156,
      "ction": 1157,
      "Everybody": 1158,
      "bout": 1159,
      "Ġbeautiful": 1160,
      "Ġaw": 1161,
      "Ġkid": 1162,
      "Ġdrink": 1163,
      "Ġthr": 1164,
      "aste": 1165,
      "Ġlay": 1166,
      "Ġgrow": 1167,
      "ummer": 1168,
      "Ġtill": 1169,
      "Ġgold": 1170,
      "Ġsit": 1171,
      "oin": 1172,
      "ated": 1173,
      "Ġsoon": 1174,
      "Ġchang": 1175,
      "ib": 1176,
      "Ġfast": 1177,
      "Ġfre": 1178,
      "Ġflow": 1179,
      "Ġmeet": 1180,
      "ones": 1181,
      "ons": 1182,
      "Ġlies": 1183,
      "aid": 1184,
      "Ġseems": 1185,
      "Ġred": 1186,
      "ired": 1187,
      "more": 1188,
      "Ġlights": 1189,
      "Ġgave": 1190,
      "Ġyes": 1191,
      "Ġlow": 1192,
      "ouble": 1193,
      "Ġcity": 1194,
      "nce": 1195,
      "Ġwhite": 1196,
      "Ġapart": 1197,
      "Ġtried": 1198,
      "amn": 1199,
      "Ġprom": 1200,
      "Ġcouldn": 1201,
      "Ġpay": 1202,
      "arth": 1203,
      "Ġwanted": 1204,
      "Ġangel": 1205,
      "Ġpast": 1206,
      "Ġshad": 1207,
      "und": 1208,
      "Ġbab": 1209,
      "Ġfear": 1210,
      "Sometimes": 1211,
      "morrow": 1212,
      "Ġdanc": 1213,
      "tle": 1214,
      "Ġtomorrow": 1215,
      "Ġpull": 1216,
      "Ġword": 1217,
      "Ġah": 1218,
      "ence": 1219,
      "ross": 1220,
      "Ġthough": 1221,
      "ĠChristmas": 1222,
      "Ġ2": 1223,
      "Ġfalling": 1224,
      "Ġpretty": 1225,
      "Ġdif": 1226,
      "orm": 1227,
      "Ġloved": 1228,
      "Ġgoin": 1229,
      "addy": 1230,
      "ks": 1231,
      "Ġrem": 1232,
      "Ġshine": 1233,
      "ily": 1234,
      "Ġhang": 1235,
      "Ġeye": 1236,
      "Ġcontr": 1237,
      "ines": 1238,
      "Ġnext": 1239,
      "Because": 1240,
      "Ġfill": 1241,
      "Sw": 1242,
      "Ġdrop": 1243,
      "Try": 1244,
      "key": 1245,
      "Please": 1246,
      "Ġbo": 1247,
      "Ġmaybe": 1248,
      "Ġnear": 1249,
      "Ġph": 1250,
      "Ġfloor": 1251,
      "Ġlead": 1252,
      "Nothing": 1253,
      "Ain": 1254,
      "Ġbright": 1255,
      "Ġlaugh": 1256,
      "ween": 1257,
      "Ġsor": 1258,
      "ves": 1259,
      "ors": 1260,
      "Ġres": 1261,
      "air": 1262,
      "Ġfull": 1263,
      "Sp": 1264,
      "oub": 1265,
      "Girl": 1266,
      "Ġdoesn": 1267,
      "Ġgets": 1268,
      "ket": 1269,
      "Ġhair": 1270,
      "la": 1271,
      "Ġforg": 1272,
      "Ġmid": 1273,
      "Ġcut": 1274,
      "Ġrec": 1275,
      "Ġborn": 1276,
      "Ġque": 1277,
      "Ġblind": 1278,
      "Ġuntil": 1279,
      "At": 1280,
      "Ġfeels": 1281,
      "Dr": 1282,
      "ze": 1283,
      "Ġeverybody": 1284,
      "Ġriver": 1285,
      "oes": 1286,
      "sw": 1287,
      "Ġupon": 1288,
      "Ġsuch": 1289,
      "Ġmet": 1290,
      "Ġtight": 1291,
      "Ġbir": 1292,
      "uff": 1293,
      "raid": 1294,
      "ont": 1295,
      "elt": 1296,
      "Ġmag": 1297,
      "Hold": 1298,
      "pr": 1299,
      "ait": 1300,
      "ĠY": 1301,
      "Ġwit": 1302,
      "aces": 1303,
      "ange": 1304,
      "Ġfollow": 1305,
      "Ġanymore": 1306,
      "Ġ1": 1307,
      "Ġseem": 1308,
      "esus": 1309,
      "Ġsays": 1310,
      "ches": 1311,
      "Ġwild": 1312,
      "While": 1313,
      "Ġloving": 1314,
      "Ġparty": 1315,
      "Ġdiffe": 1316,
      "Did": 1317,
      "ower": 1318,
      "fect": 1319,
      "Ġcool": 1320,
      "Ġim": 1321,
      "Ġfell": 1322,
      "Ġtrain": 1323,
      "Ġmad": 1324,
      "Ġtop": 1325,
      "hin": 1326,
      "peat": 1327,
      "anger": 1328,
      "Ġshot": 1329,
      "Ġring": 1330,
      "able": 1331,
      "Any": 1332,
      "Ġmis": 1333,
      "Ġbreat": 1334,
      "Ġthinking": 1335,
      "Ġbecause": 1336,
      "Ġrhy": 1337,
      "Ġact": 1338,
      "Ġsummer": 1339,
      "Only": 1340,
      "Ġhoney": 1341,
      "Ġlips": 1342,
      "Ġwouldn": 1343,
      "mm": 1344,
      "Ġdear": 1345,
      "Won": 1346,
      "Everything": 1347,
      "Ġbabe": 1348,
      "Ġwake": 1349,
      "Tr": 1350,
      "ious": 1351,
      "Ġhearts": 1352,
      "Ġapp": 1353,
      "ork": 1354,
      "Ġpeace": 1355,
      "Ġscream": 1356,
      "Ġmess": 1357,
      "Ġboys": 1358,
      "Ġmen": 1359,
      "Ġdog": 1360,
      "not": 1361,
      "Ġpie": 1362,
      "Ġcontrol": 1363,
      "oud": 1364,
      "Ġsince": 1365,
      "Ġdrive": 1366,
      "ert": 1367,
      "ale": 1368,
      "Ġworth": 1369,
      "Ġafraid": 1370,
      "Ġearth": 1371,
      "Ġdeath": 1372,
      "Ġshake": 1373,
      "Time": 1374,
      "Ġlady": 1375,
      "Down": 1376,
      "Ġtakes": 1377,
      "Ġmist": 1378,
      "unk": 1379,
      "Turn": 1380,
      "ro": 1381,
      "Ġmin": 1382,
      "Ġmar": 1383,
      "Ġansw": 1384,
      "Ġwants": 1385,
      "Ġsign": 1386,
      "Sha": 1387,
      "my": 1388,
      "Even": 1389,
      "ible": 1390,
      "Ġturned": 1391,
      "iv": 1392,
      "Ġuse": 1393,
      "iles": 1394,
      "night": 1395,
      "sing": 1396,
      "med": 1397,
      "Have": 1398,
      "Ġtear": 1399,
      "Ġbell": 1400,
      "Ġspeak": 1401,
      "Ġsat": 1402,
      "Ġskin": 1403,
      "ank": 1404,
      "Ġtired": 1405,
      "Ġclear": 1406,
      "Ġfelt": 1407,
      "Ġluck": 1408,
      "ĠV": 1409,
      "Ġvoice": 1410,
      "Ġboth": 1411,
      "Good": 1412,
      "Ġguy": 1413,
      "Could": 1414,
      "ched": 1415,
      "man": 1416,
      "icture": 1417,
      "fr": 1418,
      "Me": 1419,
      "dle": 1420,
      "Would": 1421,
      "Ġdre": 1422,
      "ery": 1423,
      "pect": 1424,
      "Ġbeing": 1425,
      "Our": 1426,
      "Ġyear": 1427,
      "iding": 1428,
      "rent": 1429,
      "ared": 1430,
      "Ġfaith": 1431,
      "Ġpro": 1432,
      "Ġdoing": 1433,
      "Ġpum": 1434,
      "Ġhour": 1435,
      "Before": 1436,
      "Ġbrother": 1437,
      "Ġx": 1438,
      "Ġlovin": 1439,
      "Ġson": 1440,
      "Put": 1441,
      "Ġuh": 1442,
      "Ġbegin": 1443,
      "Ġcomin": 1444,
      "Out": 1445,
      "Ġsen": 1446,
      "Ġplan": 1447,
      "Ġyours": 1448,
      "iness": 1449,
      "Ġbetween": 1450,
      "ĠHe": 1451,
      "Ġfam": 1452,
      "Ġhum": 1453,
      "Ġgreat": 1454,
      "Ġmill": 1455,
      "aise": 1456,
      "Ġcre": 1457,
      "ier": 1458,
      "ains": 1459,
      "Ġpar": 1460,
      "Ġthrow": 1461,
      "Br": 1462,
      "ees": 1463,
      "!)": 1464,
      "Sl": 1465,
      "ating": 1466,
      "Ġdem": 1467,
      "ian": 1468,
      "dd": 1469,
      "irty": 1470,
      "Ġdec": 1471,
      "Ġbelong": 1472,
      "Ġacross": 1473,
      "Ġbreath": 1474,
      "ips": 1475,
      "alked": 1476,
      "Ġstreets": 1477,
      "ĠThe": 1478,
      "Ġeveryone": 1479,
      "br": 1480,
      ":]": 1481,
      "nin": 1482,
      "Ġpower": 1483,
      "Still": 1484,
      "you": 1485,
      "als": 1486,
      "ats": 1487,
      "akin": 1488,
      "ching": 1489,
      "Tw": 1490,
      "cha": 1491,
      "Until": 1492,
      "head": 1493,
      "ift": 1494,
      "Ġchildren": 1495,
      "land": 1496,
      "Ġmir": 1497,
      "Ġhalf": 1498,
      "ces": 1499,
      "Ġmaking": 1500,
      "Ġbus": 1501,
      "Ġthree": 1502,
      "Ġblues": 1503,
      "Ġconf": 1504,
      "Pe": 1505,
      "Ġear": 1506,
      "oe": 1507,
      "ister": 1508,
      "Ġdamn": 1509,
      "Ġspend": 1510,
      "Ġreach": 1511,
      "Ġknown": 1512,
      "Ġemp": 1513,
      "Something": 1514,
      "av": 1515,
      "Ġpicture": 1516,
      "Ġwindow": 1517,
      "Ah": 1518,
      "Ġcomp": 1519,
      "Ġwalking": 1520,
      "?)": 1521,
      "Ġmer": 1522,
      "Ġcalled": 1523,
      "These": 1524,
      "oked": 1525,
      "Ġperfect": 1526,
      "Gonna": 1527,
      "Ġmost": 1528,
      "Ġwarm": 1529,
      "Ġrad": 1530,
      "Ġtrust": 1531,
      "Ġpop": 1532,
      "Ġloves": 1533,
      "Ġcol": 1534,
      "Ġlives": 1535,
      "Ġyet": 1536,
      "Ġcorn": 1537,
      "ining": 1538,
      "Through": 1539,
      "Ġstarted": 1540,
      "Ġstep": 1541,
      "Ġways": 1542,
      "Ġmeant": 1543,
      "ern": 1544,
      "Ġmama": 1545,
      "ised": 1546,
      "Bet": 1547,
      "mp": 1548,
      "Ġking": 1549,
      "ole": 1550,
      "ten": 1551,
      "Ġstory": 1552,
      "une": 1553,
      "Ġtrouble": 1554,
      "ead": 1555,
      "Ġcur": 1556,
      "Ġsecret": 1557,
      "aight": 1558,
      "Ġcalling": 1559,
      "Ġstanding": 1560,
      "Ġcatch": 1561,
      "God": 1562,
      "Ġstraight": 1563,
      "how": 1564,
      "Though": 1565,
      "Ġread": 1566,
      "ĠYour": 1567,
      "Ġins": 1568,
      "Ġmagic": 1569,
      "Ġwhis": 1570,
      "Ġmotherf": 1571,
      "Ġfing": 1572,
      "icks": 1573,
      "Life": 1574,
      "ills": 1575,
      "Run": 1576,
      "Ġclos": 1577,
      "Ġ[": 1578,
      "Ġgon": 1579,
      "Ġjump": 1580,
      "ote": 1581,
      "Ġdoub": 1582,
      "Ġjoy": 1583,
      "Ġmon": 1584,
      "Ġmouth": 1585,
      "Ġbar": 1586,
      "Ġnights": 1587,
      "str": 1588,
      "Ġnothin": 1589,
      "Ġnice": 1590,
      "Ġblame": 1591,
      "Ġfront": 1592,
      "Ġcompl": 1593,
      "Ġwee": 1594,
      "Ġple": 1595,
      "Ġburning": 1596,
      "irt": 1597,
      "Bre": 1598,
      "Someone": 1599,
      "ĠSt": 1600,
      "Wait": 1601,
      "Ġmount": 1602,
      "oint": 1603,
      "ute": 1604,
      "Un": 1605,
      "Ġball": 1606,
      "Cl": 1607,
      "ped": 1608,
      "Ġless": 1609,
      "umber": 1610,
      "Without": 1611,
      "Till": 1612,
      "sy": 1613,
      "Ġsnow": 1614,
      "over": 1615,
      "By": 1616,
      "Ġgreen": 1617,
      "Ġdifferent": 1618,
      "Ġbreathe": 1619,
      "Ġbuy": 1620,
      "erve": 1621,
      "Ġcrying": 1622,
      "Than": 1623,
      "Ġwasn": 1624,
      "Ġtalking": 1625,
      "Ġsile": 1626,
      "Ġsupp": 1627,
      "Ġmel": 1628,
      "Ġsch": 1629,
      "Ġhig": 1630,
      "Too": 1631,
      "Ġsight": 1632,
      "iling": 1633,
      "Ġempty": 1634,
      "Ġcarry": 1635,
      "Ġ?": 1636,
      "Watch": 1637,
      "Ġspe": 1638,
      "Think": 1639,
      "Ġleaving": 1640,
      "Ġworry": 1641,
      "Ġatt": 1642,
      "Ġkeeps": 1643,
      "Ġsend": 1644,
      "Ġes": 1645,
      "Pl": 1646,
      "Ġcaught": 1647,
      "Ġcross": 1648,
      "Ġve": 1649,
      "ĠĠĠĠ": 1650,
      "--": 1651,
      "Com": 1652,
      "Feel": 1653,
      "Ġfut": 1654,
      "Was": 1655,
      "ner": 1656,
      "ousand": 1657,
      "ince": 1658,
      "Ġdarling": 1659,
      "ric": 1660,
      "oon": 1661,
      "Ġz": 1662,
      "Ġsometimes": 1663,
      "Ġsaying": 1664,
      "Walk": 1665,
      "Ġlookin": 1666,
      "oose": 1667,
      "Ġwhe": 1668,
      "cy": 1669,
      "Ġpick": 1670,
      "Ġwear": 1671,
      "ĠJesus": 1672,
      "ene": 1673,
      "ssed": 1674,
      "ape": 1675,
      "uj": 1676,
      "Ġreg": 1677,
      "Ġglad": 1678,
      "ses": 1679,
      "Ġdist": 1680,
      "Ġneeds": 1681,
      "ield": 1682,
      "vy": 1683,
      "its": 1684,
      "ets": 1685,
      "Right": 1686,
      "Ġdevil": 1687,
      "Ġcrow": 1688,
      "Int": 1689,
      "Nobody": 1690,
      "Ġpap": 1691,
      "ope": 1692,
      "cial": 1693,
      "Ġsinging": 1694,
      "Ġknees": 1695,
      "Ġsn": 1696,
      "Ġmemory": 1697,
      "Ġbur": 1698,
      "Ġshall": 1699,
      "Ġholding": 1700,
      "Ġfeelin": 1701,
      "Ġexpl": 1702,
      "ey": 1703,
      "Ġdaddy": 1704,
      "iet": 1705,
      "ror": 1706,
      "Ġones": 1707,
      "Ġshare": 1708,
      "Gotta": 1709,
      "Ġknock": 1710,
      "Ġkids": 1711,
      "Call": 1712,
      "Ġwings": 1713,
      "Ġten": 1714,
      "Ġlooked": 1715,
      "neath": 1716,
      "Pr": 1717,
      "Ġfuture": 1718,
      "Ġsick": 1719,
      "Ġrise": 1720,
      "ple": 1721,
      "Ġtaking": 1722,
      "Ġmillion": 1723,
      "Ġwalked": 1724,
      "Ġcheck": 1725,
      "Another": 1726,
      "Ġsimp": 1727,
      "Ġsorry": 1728,
      "Once": 1729,
      "most": 1730,
      "ned": 1731,
      "Ġmi": 1732,
      "ucker": 1733,
      "ition": 1734,
      "Ġoutside": 1735,
      "Ġdoll": 1736,
      "Ġgettin": 1737,
      "shine": 1738,
      "Man": 1739,
      "Ġflame": 1740,
      "Ġstrange": 1741,
      "Ġanswer": 1742,
      "lo": 1743,
      "Ġshoes": 1744,
      "Ġisn": 1745,
      "aa": 1746,
      "Ġsear": 1747,
      "Ġthousand": 1748,
      "Lord": 1749,
      "Ġsmoke": 1750,
      "ony": 1751,
      "Ġmemories": 1752,
      "Ġphone": 1753,
      "Ġbecome": 1754,
      "imb": 1755,
      "Ġclou": 1756,
      "Repeat": 1757,
      "agg": 1758,
      "Ġret": 1759,
      "irc": 1760,
      "Sing": 1761,
      "eaven": 1762,
      "ations": 1763,
      "Ġchanged": 1764,
      "til": 1765,
      "Ġwide": 1766,
      "Ġbuild": 1767,
      "Ġquest": 1768,
      "Ġradio": 1769,
      "Lea": 1770,
      "Ġnowhere": 1771,
      "Ġskies": 1772,
      "Ġpromise": 1773,
      "Ġdoubt": 1774,
      "De": 1775,
      "Ġfucking": 1776,
      "Ġtree": 1777,
      "Ġchar": 1778,
      "Back": 1779,
      "Ġsomewhere": 1780,
      "ester": 1781,
      "the": 1782,
      "Ġmistake": 1783,
      "ready": 1784,
      "ison": 1785,
      "ooh": 1786,
      "Ġcannot": 1787,
      "Ġdancing": 1788,
      "Ġfinally": 1789,
      "Ġspace": 1790,
      "Whoa": 1791,
      "Uh": 1792,
      "edom": 1793,
      "Ġmiles": 1794,
      "Ġden": 1795,
      "eluj": 1796,
      "Ġpoor": 1797,
      "Ġlooks": 1798,
      "itting": 1799,
      "Ġago": 1800,
      "ph": 1801,
      "Ġfour": 1802,
      "Ġrid": 1803,
      "ĠNew": 1804,
      "isf": 1805,
      "elujah": 1806,
      "erse": 1807,
      "Ġnumber": 1808,
      "Her": 1809,
      "Ġeat": 1810,
      "Ġsmall": 1811,
      "ky": 1812,
      "Ġtaste": 1813,
      "Ġspin": 1814,
      "Ġstorm": 1815,
      "Ġsil": 1816,
      "ude": 1817,
      "Ġhigher": 1818,
      "imme": 1819,
      "Ġdarkness": 1820,
      "Ġbye": 1821,
      "esterday": 1822,
      "illy": 1823,
      "els": 1824,
      "ohn": 1825,
      "Ġschool": 1826,
      "Ġwithin": 1827,
      "Ġsongs": 1828,
      "Ġclot": 1829,
      "Cr": 1830,
      "Ġsy": 1831,
      "Little": 1832,
      "Ġfade": 1833,
      "Ġplaying": 1834,
      "Tonight": 1835,
      "Ġkey": 1836,
      "ica": 1837,
      "amb": 1838,
      "Ġimp": 1839,
      "otion": 1840,
      "Ġsoft": 1841,
      "People": 1842,
      "Ġalready": 1843,
      "Talk": 1844,
      "de": 1845,
      "Ġkick": 1846,
      "ird": 1847,
      "Ġsafe": 1848,
      "Yo": 1849,
      "Ġok": 1850,
      "use": 1851,
      "Ġbull": 1852,
      "Se": 1853,
      "unt": 1854,
      "Ġbrain": 1855,
      "Ġsecond": 1856,
      "Ġbleed": 1857,
      "Ġshame": 1858,
      "Ġtrack": 1859,
      "aughter": 1860,
      "atur": 1861,
      "omen": 1862,
      "Ġturning": 1863,
      "Ġwis": 1864,
      "Up": 1865,
      "ugg": 1866,
      "yle": 1867,
      "Stand": 1868,
      "Ġcirc": 1869,
      "Ġsand": 1870,
      "Ġsent": 1871,
      "omb": 1872,
      "Always": 1873,
      "ĠBr": 1874,
      "Under": 1875,
      "Ġclouds": 1876,
      "Said": 1877,
      "Ġfad": 1878,
      "Ġswear": 1879,
      "Ġtryin": 1880,
      "Ġangels": 1881,
      "Ġband": 1882,
      "zy": 1883,
      "itch": 1884,
      "Ġgod": 1885,
      "Ġmoving": 1886,
      "Ġimag": 1887,
      "eer": 1888,
      "Ġshoot": 1889,
      "Ġcorner": 1890,
      "Ġdying": 1891,
      "Sweet": 1892,
      "Ġfunny": 1893,
      "ision": 1894,
      "aster": 1895,
      "mb": 1896,
      "Ġwaste": 1897,
      "Ġdoo": 1898,
      "Ġdoin": 1899,
      "Ġfather": 1900,
      "fter": 1901,
      "iny": 1902,
      "ĠIt": 1903,
      "Ġheat": 1904,
      "ature": 1905,
      "under": 1906,
      "Ġoce": 1907,
      "ops": 1908,
      "Ġspir": 1909,
      "Ġshout": 1910,
      "Ġwalls": 1911,
      "La": 1912,
      "Ġcountry": 1913,
      "Ġcrowd": 1914,
      "Nigg": 1915,
      "Ġhung": 1916,
      "Ġanyone": 1917,
      "Ġeverywhere": 1918,
      "icked": 1919,
      "Ġdeal": 1920,
      "Ġje": 1921,
      "thin": 1922,
      "Ġpus": 1923,
      "yeah": 1924,
      "ial": 1925,
      "Ġpretend": 1926,
      "ming": 1927,
      "pin": 1928,
      "Ġlonger": 1929,
      "Show": 1930,
      "Since": 1931,
      "Ġrom": 1932,
      "Ġalmost": 1933,
      "Ġwhoa": 1934,
      "Ġba": 1935,
      "Ġloud": 1936,
      "Ġthrill": 1937,
      "Qu": 1938,
      "elf": 1939,
      "Ġbat": 1940,
      "His": 1941,
      "Ġsold": 1942,
      "Ġsurv": 1943,
      "rew": 1944,
      "asure": 1945,
      "oof": 1946,
      "Ġpride": 1947,
      "osed": 1948,
      "Ġclothes": 1949,
      "Ġhor": 1950,
      "Looking": 1951,
      "ical": 1952,
      "Ġthoughts": 1953,
      "ried": 1954,
      "Ġce": 1955,
      "Verse": 1956,
      "Ġris": 1957,
      "aul": 1958,
      "Ġtelling": 1959,
      "Ġmeans": 1960,
      "Ġscared": 1961,
      "Ġproble": 1962,
      "Ġmiddle": 1963,
      "Ġed": 1964,
      "ippin": 1965,
      "read": 1966,
      "Ġdesire": 1967,
      "Ġmom": 1968,
      "Somebody": 1969,
      "Ġfair": 1970,
      "ivin": 1971,
      "Ġwrite": 1972,
      "Ġplayed": 1973,
      "Does": 1974,
      "ete": 1975,
      "Ġrel": 1976,
      "Ġspecial": 1977,
      "Ġbook": 1978,
      "Ġboot": 1979,
      "Ġdawn": 1980,
      "Ġreturn": 1981,
      "Ġshining": 1982,
      "Ġfamily": 1983,
      "Ġdirty": 1984,
      "iew": 1985,
      "umble": 1986,
      "rought": 1987,
      "Ġsatisf": 1988,
      "Ġsunshine": 1989,
      "Ġexc": 1990,
      "Stop": 1991,
      "ices": 1992,
      "cept": 1993,
      "Into": 1994,
      "Ġsimple": 1995,
      "den": 1996,
      "Ġstick": 1997,
      "Remember": 1998,
      "Ġdied": 1999,
      "Ġhall": 2000,
      "Ġstone": 2001,
      "Ġglass": 2002,
      "Two": 2003,
      "Hear": 2004,
      "Ġwast": 2005,
      "Ġclean": 2006,
      "Ġblock": 2007,
      "Ġclub": 2008,
      "?\"": 2009,
      "Ġsqu": 2010,
      "Ġlosing": 2011,
      "Ġweak": 2012,
      "Ġfew": 2013,
      "ertain": 2014,
      "het": 2015,
      "Ġheal": 2016,
      "Ġfuckin": 2017,
      "Ġgiving": 2018,
      "Ġwhich": 2019,
      "Ġagainst": 2020,
      "Am": 2021,
      "cked": 2022,
      "Ġcried": 2023,
      "Ġwine": 2024,
      "Ġforgive": 2025,
      "Know": 2026,
      "Ġsix": 2027,
      "Ġcomm": 2028,
      "uz": 2029,
      "Ġdust": 2030,
      "Bring": 2031,
      "Ġtor": 2032,
      "Ġsense": 2033,
      "??": 2034,
      "Ġ4": 2035,
      "Ġletter": 2036,
      "Ġcour": 2037,
      "Ġref": 2038,
      "Ġtrees": 2039,
      "Ġforgot": 2040,
      "Ġ3": 2041,
      "ilt": 2042,
      "undred": 2043,
      "Sc": 2044,
      "yond": 2045,
      "Ġrealize": 2046,
      "Listen": 2047,
      "Ġneeded": 2048,
      "Ġsex": 2049,
      "Str": 2050,
      "ual": 2051,
      "ards": 2052,
      "Ġlearned": 2053,
      "vent": 2054,
      "Ġfoot": 2055,
      "Fall": 2056,
      "ĠOh": 2057,
      "Ġstyle": 2058,
      ".\"": 2059,
      "Ġlivin": 2060,
      "Ġwat": 2061,
      "ates": 2062,
      "ĠKing": 2063,
      "Ġcand": 2064,
      "Ġdry": 2065,
      "Ġlad": 2066,
      "Ġob": 2067,
      "Ġrhyme": 2068,
      "),": 2069,
      "Sm": 2070,
      "Ġheld": 2071,
      "Ġgrace": 2072,
      "Ġleg": 2073,
      "Ġevening": 2074,
      "Ġbout": 2075,
      "aze": 2076,
      "Ġdisc": 2077,
      "Ġsell": 2078,
      "Ġrather": 2079,
      "host": 2080,
      "Ġtender": 2081,
      "Ġdiam": 2082,
      "Ġmountain": 2083,
      "Ġahead": 2084,
      "Ġwomen": 2085,
      "Ġyesterday": 2086,
      "ief": 2087,
      "Ġleaves": 2088,
      "Ġdisapp": 2089,
      "Ġcloser": 2090,
      "**": 2091,
      "Ġpoint": 2092,
      "vers": 2093,
      "!!": 2094,
      "Ġpo": 2095,
      "Ġturns": 2096,
      "Ġlovers": 2097,
      "Ġma": 2098,
      "ution": 2099,
      "Ġocean": 2100,
      "Ġwonderful": 2101,
      "Ġcoll": 2102,
      "idge": 2103,
      "thm": 2104,
      "Ġhuman": 2105,
      "ep": 2106,
      "Ġke": 2107,
      "Ġtreat": 2108,
      "Ġsol": 2109,
      "ĠCl": 2110,
      "Ġbitches": 2111,
      "Ġchain": 2112,
      "Ġill": 2113,
      "Ex": 2114,
      "Hell": 2115,
      "ping": 2116,
      "Ġbeside": 2117,
      "Ġbound": 2118,
      "Ġdress": 2119,
      "Ġloose": 2120,
      "Ġqueen": 2121,
      "rap": 2122,
      "by": 2123,
      "ex": 2124,
      "Ġgent": 2125,
      "Ġgrave": 2126,
      "Ġbott": 2127,
      "anta": 2128,
      "Ġokay": 2129,
      "Ġsister": 2130,
      "ittin": 2131,
      "Ġdreaming": 2132,
      "Ġbreaking": 2133,
      "ode": 2134,
      "Stay": 2135,
      "Ġsurpr": 2136,
      "Ġcou": 2137,
      "Fuck": 2138,
      "ĠFr": 2139,
      "Roll": 2140,
      "Ġtalkin": 2141,
      "Over": 2142,
      "Ġself": 2143,
      "Ġtrave": 2144,
      "Ġcho": 2145,
      "kin": 2146,
      "Ġpen": 2147,
      "Ġesc": 2148,
      "After": 2149,
      "Long": 2150,
      "Ġet": 2151,
      "Ġhappened": 2152,
      "bo": 2153,
      "Ġfive": 2154,
      "Ġser": 2155,
      "Ġhundred": 2156,
      "Ġregret": 2157,
      "Ġdanger": 2158,
      "Ġsuper": 2159,
      "Ġtem": 2160,
      "lect": 2161,
      "Ġhole": 2162,
      "Ġawake": 2163,
      "roud": 2164,
      "Ġdrown": 2165,
      "gg": 2166,
      "Ġboo": 2167,
      "allelujah": 2168,
      "ipped": 2169,
      "iday": 2170,
      "Open": 2171,
      "Ġcrack": 2172,
      "Ġlovely": 2173,
      "apped": 2174,
      "Ġshadows": 2175,
      "Ġpiece": 2176,
      "issed": 2177,
      "stead": 2178,
      "Ġfreedom": 2179,
      "Ġrose": 2180,
      "Ġthank": 2181,
      "Ġrap": 2182,
      "Le": 2183,
      "Want": 2184,
      "Ġwinter": 2185,
      "unday": 2186,
      "Ġminute": 2187,
      "Ġfig": 2188,
      "Its": 2189,
      "Gr": 2190,
      "vor": 2191,
      "Ġcraw": 2192,
      "Til": 2193,
      "go": 2194,
      "mell": 2195,
      "Ġrunnin": 2196,
      "Ġfact": 2197,
      "Ġpack": 2198,
      "Ha": 2199,
      "Ġice": 2200,
      "Ġrhythm": 2201,
      "Ġwhisper": 2202,
      "Che": 2203,
      "cl": 2204,
      "Ġbang": 2205,
      "Ġter": 2206,
      "Ġshut": 2207,
      "Ġprove": 2208,
      "Somewhere": 2209,
      "ect": 2210,
      "ination": 2211,
      "Ġjob": 2212,
      "Ġang": 2213,
      "Ġfield": 2214,
      "Ġpur": 2215,
      "Ġsingle": 2216,
      "upid": 2217,
      "eat": 2218,
      "ĠWe": 2219,
      "Ġrich": 2220,
      "Ġsteal": 2221,
      "mit": 2222,
      "Ġlaw": 2223,
      "ĠYork": 2224,
      "Gu": 2225,
      "vol": 2226,
      "sel": 2227,
      "Ġhaven": 2228,
      "Ġmidnight": 2229,
      "Ġbird": 2230,
      "Dream": 2231,
      "Ġbrought": 2232,
      "Ġcons": 2233,
      "Ġfeelings": 2234,
      "Ġpaper": 2235,
      "ster": 2236,
      "Ġview": 2237,
      "olly": 2238,
      "Ġmotherfucker": 2239,
      "Con": 2240,
      "ik": 2241,
      "Ġevil": 2242,
      "ward": 2243,
      "Ġrep": 2244,
      "aint": 2245,
      "pend": 2246,
      "Ġbells": 2247,
      "noc": 2248,
      "Ġswing": 2249,
      "Ġgang": 2250,
      "Ġpers": 2251,
      "Ġpush": 2252,
      "Ġhol": 2253,
      "Ġent": 2254,
      "enty": 2255,
      "usion": 2256,
      "ises": 2257,
      "Better": 2258,
      "Ġstarts": 2259,
      "cious": 2260,
      "da": 2261,
      "Ġanybody": 2262,
      "no": 2263,
      "Ġpol": 2264,
      "Ġeveryday": 2265,
      "Ġhill": 2266,
      "Ġru": 2267,
      "ĠBl": 2268,
      "Ġwatching": 2269,
      "Ġdreame": 2270,
      "Ġbag": 2271,
      "ized": 2272,
      "ipping": 2273,
      "Ġmirror": 2274,
      "Boy": 2275,
      "ils": 2276,
      "Ġlift": 2277,
      "Ġanyway": 2278,
      "Ġsal": 2279,
      "ĠMr": 2280,
      "Ġworking": 2281,
      "Ġtea": 2282,
      "ina": 2283,
      "Ġscene": 2284,
      "Ġfigure": 2285,
      "Ġshadow": 2286,
      "Ġchoose": 2287,
      "used": 2288,
      "Ġasked": 2289,
      "Forever": 2290,
      "Ġhuh": 2291,
      "Ġquiet": 2292,
      "sta": 2293,
      "Ġclimb": 2294,
      "Ġsilence": 2295,
      "Ġwo": 2296,
      "Ġmur": 2297,
      "Ġyell": 2298,
      "ides": 2299,
      "adise": 2300,
      "Ġremind": 2301,
      "Fl": 2302,
      "fl": 2303,
      "Ġexplain": 2304,
      "lcome": 2305,
      "Ġbust": 2306,
      "Ġbox": 2307,
      "Rock": 2308,
      "ĠIs": 2309,
      "amp": 2310,
      "Ġsomehow": 2311,
      "Ġtaken": 2312,
      "Ġsub": 2313,
      "Ġhurts": 2314,
      "so": 2315,
      "ĠAl": 2316,
      "Ġspirit": 2317,
      "Ġfol": 2318,
      "ords": 2319,
      "ering": 2320,
      "ots": 2321,
      "Those": 2322,
      "Ġsurvive": 2323,
      "Ġwife": 2324,
      "Ġfilled": 2325,
      "bow": 2326,
      "ture": 2327,
      "Ġbrand": 2328,
      "Ġends": 2329,
      "orrow": 2330,
      "Ġspring": 2331,
      "Whatever": 2332,
      "igger": 2333,
      "Ġmercy": 2334,
      "Ġtwist": 2335,
      "Ġcap": 2336,
      "Ġsilver": 2337,
      "cc": 2338,
      "Ġdig": 2339,
      "Ġghost": 2340,
      "ĠSp": 2341,
      "Ġdel": 2342,
      "Leave": 2343,
      "Ġkept": 2344,
      "aked": 2345,
      "ĠHis": 2346,
      "Find": 2347,
      "onds": 2348,
      "Ġstood": 2349,
      "Ġplaces": 2350,
      "Ġniggaz": 2351,
      "Ġnews": 2352,
      "Waiting": 2353,
      "Ġra": 2354,
      "ior": 2355,
      "min": 2356,
      "Ġglory": 2357,
      "Ġromance": 2358,
      "ories": 2359,
      "Ġbeauty": 2360,
      "Ġcat": 2361,
      "Ġbeyond": 2362,
      "Ġsmell": 2363,
      "Ġproud": 2364,
      "Ġbless": 2365,
      "ĠJohn": 2366,
      "Ġwalkin": 2367,
      "Break": 2368,
      "Big": 2369,
      "Play": 2370,
      "Ġlying": 2371,
      "Ġstuck": 2372,
      "Ġwhatever": 2373,
      "oken": 2374,
      "ugs": 2375,
      "ton": 2376,
      "Ġweather": 2377,
      "Ġquite": 2378,
      "Ġbottle": 2379,
      "Fee": 2380,
      "Ġfaces": 2381,
      "Ġkinda": 2382,
      "ĠAmer": 2383,
      "Ġfingers": 2384,
      "Ġsupposed": 2385,
      "oat": 2386,
      "Ġoutta": 2387,
      "Ġcont": 2388,
      "ngth": 2389,
      "ĠU": 2390,
      "ored": 2391,
      "ully": 2392,
      "Trying": 2393,
      "Ġlines": 2394,
      "....": 2395,
      "Ġheavy": 2396,
      "Ġlucky": 2397,
      "king": 2398,
      "Ġta": 2399,
      "oop": 2400,
      "Ġquick": 2401,
      "friend": 2402,
      "Ya": 2403,
      "gu": 2404,
      "Ġmot": 2405,
      "Ġcast": 2406,
      "itar": 2407,
      "ĠTh": 2408,
      "ably": 2409,
      "Should": 2410,
      "Ġsorrow": 2411,
      "do": 2412,
      "Ġdumb": 2413,
      "Ġpat": 2414,
      "ĠDe": 2415,
      "Ġweek": 2416,
      "Ġstuff": 2417,
      "Ġsomeday": 2418,
      "Ġcrime": 2419,
      "Ġsleeping": 2420,
      "Ġfant": 2421,
      "More": 2422,
      "reat": 2423,
      "Ġdick": 2424,
      "Ġslowly": 2425,
      "Ġsigh": 2426,
      "ana": 2427,
      "Ġpas": 2428,
      "Ġrace": 2429,
      "cho": 2430,
      "Ġholy": 2431,
      "Ġstare": 2432,
      "ney": 2433,
      "uel": 2434,
      "ĠMar": 2435,
      "Ġsomethin": 2436,
      "Ġfreak": 2437,
      "Ġbree": 2438,
      "Ġfate": 2439,
      "Ġgiven": 2440,
      "Ġmach": 2441,
      "Ġload": 2442,
      "ho": 2443,
      "va": 2444,
      "!\"": 2445,
      "Ġtong": 2446,
      "Ġrul": 2447,
      "Ġpraise": 2448,
      "Ġedge": 2449,
      "sent": 2450,
      "Ġbow": 2451,
      "Ġspell": 2452,
      "Ġfalls": 2453,
      "OR": 2454,
      "reen": 2455,
      "Ġbou": 2456,
      "Ġinsane": 2457,
      "fet": 2458,
      "town": 2459,
      "ache": 2460,
      "Lay": 2461,
      "Ġran": 2462,
      "hings": 2463,
      "Ġdest": 2464,
      "Ġlived": 2465,
      "Ġhy": 2466,
      "ĠAnd": 2467,
      "Ġspark": 2468,
      "Ġmov": 2469,
      "Ġadd": 2470,
      "com": 2471,
      "render": 2472,
      "Ġhoes": 2473,
      "we": 2474,
      "Ġtall": 2475,
      "Ġspot": 2476,
      "Ġfavor": 2477,
      "Ġgolden": 2478,
      "selves": 2479,
      "Ġmissing": 2480,
      "ĠNo": 2481,
      "Ġstranger": 2482,
      "Ġfat": 2483,
      "Black": 2484,
      "Living": 2485,
      "alous": 2486,
      "ants": 2487,
      "Everyone": 2488,
      "rs": 2489,
      "Ġpa": 2490,
      "ctor": 2491,
      "ucked": 2492,
      "Ġind": 2493,
      "ĠSunday": 2494,
      "Ġstrength": 2495,
      "Ġtee": 2496,
      "iled": 2497,
      "Ġpieces": 2498,
      "Ġinnoc": 2499,
      "unch": 2500,
      "Ġtele": 2501,
      "Ġtrip": 2502,
      "Ġ.": 2503,
      "Ġraise": 2504,
      "leep": 2505,
      "Ġstate": 2506,
      "acked": 2507,
      "ls": 2508,
      "Ġver": 2509,
      "atin": 2510,
      "Ġleast": 2511,
      "Ġsuff": 2512,
      "alm": 2513,
      "res": 2514,
      "About": 2515,
      "Each": 2516,
      "ither": 2517,
      "Ġenem": 2518,
      "boy": 2519,
      "rif": 2520,
      "Ġwand": 2521,
      "Ġthinkin": 2522,
      "Ġrainbow": 2523,
      "Ġhello": 2524,
      "Ġbrings": 2525,
      "Ġearly": 2526,
      "Ġpaid": 2527,
      "Ġhours": 2528,
      "Day": 2529,
      "Ġbare": 2530,
      "Ġothers": 2531,
      "Things": 2532,
      "ient": 2533,
      "Ġcares": 2534,
      "arden": 2535,
      "ai": 2536,
      "Ġdraw": 2537,
      "Ġdrunk": 2538,
      "Bel": 2539,
      "Ġbones": 2540,
      "Ġbelow": 2541,
      "Ġaff": 2542,
      "men": 2543,
      "Ġint": 2544,
      "Ġunt": 2545,
      "Ġneck": 2546,
      "Ġhaving": 2547,
      "Ġgrab": 2548,
      "Ġbottom": 2549,
      "Ġbone": 2550,
      "uckin": 2551,
      "Ġflowers": 2552,
      "Ġhanging": 2553,
      "__": 2554,
      "rence": 2555,
      "Ġtu": 2556,
      "any": 2557,
      "Ġpoc": 2558,
      "Ġhood": 2559,
      "Ġsayin": 2560,
      "dom": 2561,
      "Ġund": 2562,
      "icke": 2563,
      "Ġprice": 2564,
      "Ġconc": 2565,
      "Ġkilling": 2566,
      "Ġfore": 2567,
      "Ġsug": 2568,
      "Ġfighting": 2569,
      "fort": 2570,
      "Ġstupid": 2571,
      "ican": 2572,
      "Ġwave": 2573,
      "Burn": 2574,
      "Ġty": 2575,
      "Ġtough": 2576,
      "Makes": 2577,
      "Heaven": 2578,
      "Hallelujah": 2579,
      "Ġrules": 2580,
      "Ġcertain": 2581,
      "Ġparadise": 2582,
      "Ġer": 2583,
      "Ġdouble": 2584,
      "ered": 2585,
      "Ġid": 2586,
      "Ġtest": 2587,
      "Ġmic": 2588,
      "Ġgen": 2589,
      "Ġkissed": 2590,
      "Ġfolks": 2591,
      "ted": 2592,
      "Ġbomb": 2593,
      "ray": 2594,
      "Ġgimme": 2595,
      "Ġbend": 2596,
      "Ġshort": 2597,
      "pped": 2598,
      "Ġescape": 2599,
      "Ġtune": 2600,
      "Ġscr": 2601,
      "uly": 2602,
      "aced": 2603,
      "Ġstronger": 2604,
      "Ġcree": 2605,
      "Ġgames": 2606,
      "Ġwheel": 2607,
      "Ġposs": 2608,
      "ĠMon": 2609,
      "Ġchill": 2610,
      "Ġdiv": 2611,
      "obably": 2612,
      "Ġprayer": 2613,
      "Lost": 2614,
      "tered": 2615,
      "for": 2616,
      "sc": 2617,
      "Ġlean": 2618,
      "Ġart": 2619,
      "Ġnone": 2620,
      "Ġsearch": 2621,
      "Ġyea": 2622,
      "Ġlord": 2623,
      "Ġnine": 2624,
      "ĠAn": 2625,
      "Light": 2626,
      "ntal": 2627,
      "line": 2628,
      "Ġ5": 2629,
      "Ġvict": 2630,
      "Ġgroo": 2631,
      "Jesus": 2632,
      "ns": 2633,
      "iting": 2634,
      "Ġguitar": 2635,
      "Ġwre": 2636,
      "Ġlater": 2637,
      "Ġseven": 2638,
      "Ġtwice": 2639,
      "Happ": 2640,
      "Ġsac": 2641,
      "Ġpour": 2642,
      "Someday": 2643,
      "Ġgrowing": 2644,
      "Ġcomplete": 2645,
      "00": 2646,
      "Car": 2647,
      "Ġbeneath": 2648,
      "Ġladies": 2649,
      "cle": 2650,
      "down": 2651,
      "ume": 2652,
      "vel": 2653,
      "Fre": 2654,
      "ited": 2655,
      "Ġpark": 2656,
      "esh": 2657,
      "Ġev": 2658,
      "Na": 2659,
      "Ġtaught": 2660,
      "ashing": 2661,
      "gr": 2662,
      "Ġboom": 2663,
      "Ġrolling": 2664,
      "Cha": 2665,
      "Lo": 2666,
      "Ġfix": 2667,
      "Has": 2668,
      "dr": 2669,
      "let": 2670,
      "Ġbear": 2671,
      "Ġasking": 2672,
      "Ġweight": 2673,
      "Ġtroub": 2674,
      "Ġsail": 2675,
      "Ġdrum": 2676,
      "Ġtongue": 2677,
      "Ġpill": 2678,
      "Ġhappiness": 2679,
      "Dar": 2680,
      "Deep": 2681,
      "Ġeight": 2682,
      "Ġdeserve": 2683,
      "Ġguns": 2684,
      "Ġbirds": 2685,
      "Ġcor": 2686,
      "Ġslip": 2687,
      "ocked": 2688,
      "onesome": 2689,
      "Ġsink": 2690,
      "Ġsitting": 2691,
      "isc": 2692,
      "Ġthunder": 2693,
      "allow": 2694,
      "what": 2695,
      "Ġinv": 2696,
      "Ġmyst": 2697,
      "Start": 2698,
      "Ġrespect": 2699,
      "Ġsurprise": 2700,
      "ler": 2701,
      "Ġgal": 2702,
      "Ġpath": 2703,
      "Ġetern": 2704,
      "Been": 2705,
      "Last": 2706,
      "bel": 2707,
      "hey": 2708,
      "Ġbay": 2709,
      "Ġcash": 2710,
      "Ġdeny": 2711,
      "Ġflying": 2712,
      "reet": 2713,
      "Ġclock": 2714,
      "Ġgrand": 2715,
      "Ġfinger": 2716,
      "Had": 2717,
      "iff": 2718,
      "Ġbuilt": 2719,
      "Ġchee": 2720,
      "action": 2721,
      "Ġcover": 2722,
      "Ġdistance": 2723,
      "ingle": 2724,
      "iest": 2725,
      "Help": 2726,
      "Soon": 2727,
      "Ġswim": 2728,
      "Ġanywhere": 2729,
      "Ġmelody": 2730,
      "Ne": 2731,
      "Ġwood": 2732,
      "Ġmakin": 2733,
      "ury": 2734,
      "Ġquestion": 2735,
      "Ġdime": 2736,
      "Ġfears": 2737,
      "ages": 2738,
      "gy": 2739,
      "Ġstole": 2740,
      "Ġbelie": 2741,
      "ĠHim": 2742,
      "Ġhighway": 2743,
      "US": 2744,
      "Ġfit": 2745,
      "onest": 2746,
      "Ġrush": 2747,
      "Ġasleep": 2748,
      "Ġflesh": 2749,
      "ĠJoe": 2750,
      "Ġperson": 2751,
      "Ġfavorite": 2752,
      "Ġdef": 2753,
      "ĠMy": 2754,
      "Ġdollar": 2755,
      "Ġbattle": 2756,
      "gie": 2757,
      "Ġsurrender": 2758,
      "Ġpress": 2759,
      "Ġdisappear": 2760,
      "Ġtroubles": 2761,
      "ĠIn": 2762,
      "Ġshore": 2763,
      "Ġroses": 2764,
      "Ġign": 2765,
      "Ġspent": 2766,
      "Ġought": 2767,
      "ĠLove": 2768,
      "Ġvoices": 2769,
      "heart": 2770,
      "Ġbought": 2771,
      "lew": 2772,
      "acher": 2773,
      "ceive": 2774,
      "Ġwrote": 2775,
      "Ġglow": 2776,
      "orth": 2777,
      "Ġeas": 2778,
      "Ġharm": 2779,
      "ault": 2780,
      "Ġtwenty": 2781,
      "Ġreac": 2782,
      "ĠMan": 2783,
      "Ġcouple": 2784,
      "Ġcase": 2785,
      "itc": 2786,
      "Shake": 2787,
      "Ġhon": 2788,
      "Ġprecious": 2789,
      "Honey": 2790,
      "Ġage": 2791,
      "Ġdare": 2792,
      "Ġlonesome": 2793,
      "Ġseason": 2794,
      "ighb": 2795,
      "Ġfoolish": 2796,
      "Ġlaughing": 2797,
      "Night": 2798,
      "ined": 2799,
      "Ġlifet": 2800,
      "Ġstore": 2801,
      "aret": 2802,
      "Ġdriving": 2803,
      "Ġcloud": 2804,
      "Ġcalls": 2805,
      "Ġkisses": 2806,
      "Ġlifetime": 2807,
      "Live": 2808,
      "Work": 2809,
      "ced": 2810,
      "Ġcow": 2811,
      "ĠHeaven": 2812,
      "Ġshoulder": 2813,
      "Ġsounds": 2814,
      "Ġgentle": 2815,
      "ator": 2816,
      "Ġknowing": 2817,
      "Ġsilent": 2818,
      "hetto": 2819,
      "room": 2820,
      "Ġdirt": 2821,
      "ics": 2822,
      "Ġsudd": 2823,
      "Ġbreeze": 2824,
      "Kill": 2825,
      "Ġfeed": 2826,
      "ention": 2827,
      "Ġpound": 2828,
      "ĠMe": 2829,
      "Ġgrown": 2830,
      "Ġmovin": 2831,
      "Ġwasted": 2832,
      "Ġshouldn": 2833,
      "Ġsudden": 2834,
      "Ġjoke": 2835,
      "alley": 2836,
      "Ġfail": 2837,
      "Pre": 2838,
      "ball": 2839,
      "Ġsouth": 2840,
      "itten": 2841,
      "ipe": 2842,
      "Ġmachine": 2843,
      "Ġcars": 2844,
      "urch": 2845,
      "ĠMiss": 2846,
      "Ġchoice": 2847,
      "Ġsteel": 2848,
      "Ġfake": 2849,
      "Ġlos": 2850,
      "Ġship": 2851,
      "azing": 2852,
      "Hello": 2853,
      "well": 2854,
      "Ġgarden": 2855,
      "Ġlock": 2856,
      "Ġprobably": 2857,
      "Ġvision": 2858,
      "Pull": 2859,
      "away": 2860,
      "Ġlocked": 2861,
      "Ġjoin": 2862,
      "Thought": 2863,
      "Ġhurry": 2864,
      "Running": 2865,
      "phone": 2866,
      "Move": 2867,
      "that": 2868,
      "Ġrough": 2869,
      "Ġlaid": 2870,
      "Ġpassing": 2871,
      "Ġbirth": 2872,
      "but": 2873,
      "Ġaut": 2874,
      "Ġsuck": 2875,
      "Ġdrag": 2876,
      "Ġsweat": 2877,
      "Ġfame": 2878,
      "uss": 2879,
      "Ġgives": 2880,
      "Ġadv": 2881,
      "Pret": 2882,
      "ging": 2883,
      "Ġye": 2884,
      "ita": 2885,
      "Ġworse": 2886,
      "Ġrollin": 2887,
      "New": 2888,
      "Ġwet": 2889,
      "Ġdestr": 2890,
      "Inside": 2891,
      "Ġmeaning": 2892,
      "Seems": 2893,
      "Ġthin": 2894,
      "Ġrub": 2895,
      "Ġplans": 2896,
      "Ġchains": 2897,
      "Ġdifference": 2898,
      "Ġmessage": 2899,
      "Ġproblem": 2900,
      "Ġexpect": 2901,
      "Ġmoves": 2902,
      "Ġhappens": 2903,
      "Ġremain": 2904,
      "Goodbye": 2905,
      "Ġneighb": 2906,
      "Ġshines": 2907,
      "ground": 2908,
      "ident": 2909,
      "Ġjud": 2910,
      "Ġseemed": 2911,
      "Ġtruck": 2912,
      "HE": 2913,
      "Set": 2914,
      "Ġclass": 2915,
      "gin": 2916,
      "Ġcop": 2917,
      "Ġpassed": 2918,
      "Ġnumb": 2919,
      "Ġju": 2920,
      "Ġcryin": 2921,
      "Kiss": 2922,
      "ience": 2923,
      "Ġmoonlight": 2924,
      "Ġyouth": 2925,
      "Ġfucked": 2926,
      "Ġgas": 2927,
      "acks": 2928,
      "Ġharder": 2929,
      "Making": 2930,
      "aged": 2931,
      "Cry": 2932,
      "Im": 2933,
      "wood": 2934,
      "Ġ&": 2935,
      "Ġtow": 2936,
      "Ġchest": 2937,
      "Ġboat": 2938,
      "Standing": 2939,
      "Ġly": 2940,
      "Ġhoo": 2941,
      "Ġriding": 2942,
      "Ġspread": 2943,
      "Ġwaves": 2944,
      "ĠTo": 2945,
      "Ġcup": 2946,
      "ero": 2947,
      "lebr": 2948,
      "though": 2949,
      "Ġrockin": 2950,
      "Ġdarlin": 2951,
      "Ġmisery": 2952,
      "Ġhorse": 2953,
      "Ever": 2954,
      "istory": 2955,
      "Ġheads": 2956,
      "Close": 2957,
      "ri": 2958,
      "Ġinter": 2959,
      "oday": 2960,
      "Ġgrows": 2961,
      "Ġsaved": 2962,
      "Ġchanging": 2963,
      "Ġchanges": 2964,
      "Ġscreaming": 2965,
      "Ġbusiness": 2966,
      "Mar": 2967,
      "che": 2968,
      "ĠYeah": 2969,
      "Ġcig": 2970,
      "Ġbegins": 2971,
      "ries": 2972,
      "akes": 2973,
      "Ġsees": 2974,
      "Walking": 2975,
      "iam": 2976,
      "Ġmed": 2977,
      "aus": 2978,
      "Ġdev": 2979,
      "olog": 2980,
      "Ġgrass": 2981,
      "uts": 2982,
      "Ġsatisfied": 2983,
      "gain": 2984,
      "Ġfi": 2985,
      "Ġspeed": 2986,
      "Ġprison": 2987,
      "Ġcomfort": 2988,
      "angers": 2989,
      "Ġpos": 2990,
      "oth": 2991,
      "Ġnoise": 2992,
      "ify": 2993,
      "Ġdep": 2994,
      "Ġrob": 2995,
      "Ġarm": 2996,
      "Hang": 2997,
      "bre": 2998,
      "hile": 2999,
      "oly": 3000,
      "Ġinstead": 3001,
      "Ġpassion": 3002,
      "Check": 3003,
      "Ġsle": 3004,
      "Ġplayin": 3005,
      "Ġwondering": 3006,
      "Save": 3007,
      "lit": 3008,
      "Ġow": 3009,
      "Ġdire": 3010,
      "att": 3011,
      "Ġmurder": 3012,
      "rest": 3013,
      "erry": 3014,
      "Ġmornin": 3015,
      "Ġtil": 3016,
      "Ġdies": 3017,
      "arm": 3018,
      "Ġhom": 3019,
      "Ġreality": 3020,
      "Ġquit": 3021,
      "Ġbeginning": 3022,
      "Thank": 3023,
      "aturday": 3024,
      "Believe": 3025,
      "CH": 3026,
      "Ġminds": 3027,
      "Ġmighty": 3028,
      "IN": 3029,
      "ley": 3030,
      "Heart": 3031,
      "Ġwaitin": 3032,
      "Ġwest": 3033,
      "Ġsmok": 3034,
      "Ġending": 3035,
      "Ġarr": 3036,
      "Ġmas": 3037,
      "Ġinf": 3038,
      "essed": 3039,
      "Ġfallin": 3040,
      "Ġbegun": 3041,
      "Ġfools": 3042,
      "Ġacc": 3043,
      "Send": 3044,
      "Ġ6": 3045,
      "Ġtide": 3046,
      "Ġban": 3047,
      "Ġprop": 3048,
      "Ġsmiling": 3049,
      "Anything": 3050,
      "Sleep": 3051,
      "Ġteeth": 3052,
      "Ġwise": 3053,
      "Ġcries": 3054,
      "Throw": 3055,
      "Ġsouls": 3056,
      "Ġyellow": 3057,
      "Mama": 3058,
      "uation": 3059,
      "Ġbreaks": 3060,
      "Ġchair": 3061,
      "Ġburned": 3062,
      "Free": 3063,
      "ĠTV": 3064,
      "Ġdarke": 3065,
      "Ġcolor": 3066,
      "Ġfort": 3067,
      "Ġdoors": 3068,
      "Ġmissed": 3069,
      "Fly": 3070,
      "hood": 3071,
      "Ġbrown": 3072,
      "ĠLou": 3073,
      "Ġstopped": 3074,
      "Blue": 3075,
      "iole": 3076,
      "volution": 3077,
      "Dance": 3078,
      "don": 3079,
      "Ġcost": 3080,
      "erv": 3081,
      "utes": 3082,
      "Ġadore": 3083,
      "par": 3084,
      "Ġir": 3085,
      "Ġfo": 3086,
      "Ġnah": 3087,
      "Ġfinal": 3088,
      "airs": 3089,
      "Ġsearching": 3090,
      "Ġfantasy": 3091,
      "fully": 3092,
      "Ġwound": 3093,
      "Ġexp": 3094,
      "Ġmirac": 3095,
      "Ġquestions": 3096,
      "Ġfields": 3097,
      "Ġmod": 3098,
      "Ġseek": 3099,
      "Didn": 3100,
      "Ġlegs": 3101,
      "Ġdiamond": 3102,
      "Ġdestiny": 3103,
      "First": 3104,
      "Money": 3105,
      "Today": 3106,
      "zen": 3107,
      "odies": 3108,
      "Ġmomma": 3109,
      "Ġenemy": 3110,
      "ject": 3111,
      "Ġears": 3112,
      "overed": 3113,
      "Ġgray": 3114,
      "yes": 3115,
      "ĠWhat": 3116,
      "Ġlaughter": 3117,
      "Ġfault": 3118,
      "Ġpussy": 3119,
      "set": 3120,
      "atic": 3121,
      "ider": 3122,
      "Ġpromised": 3123,
      "Guess": 3124,
      "Chan": 3125,
      "Follow": 3126,
      "tain": 3127,
      "Ġmix": 3128,
      "Ġbuck": 3129,
      "Ġknife": 3130,
      "Forget": 3131,
      "Ġdressed": 3132,
      "Ġforgotten": 3133,
      "Ġsugar": 3134,
      "Ġpure": 3135,
      "ĠGr": 3136,
      "Nigga": 3137,
      "Ġdreamed": 3138,
      "Ġhust": 3139,
      "Ġrecall": 3140,
      "OU": 3141,
      "ult": 3142,
      "Ġchurch": 3143,
      "Ġendless": 3144,
      "Ġmatters": 3145,
      "Ġele": 3146,
      "Ġourselves": 3147,
      "Ġbitter": 3148,
      "Left": 3149,
      "Feeling": 3150,
      "sp": 3151,
      "ease": 3152,
      "Ġolder": 3153,
      "Ġspinning": 3154,
      "Yea": 3155,
      "eor": 3156,
      "Ġweed": 3157,
      "Ġbor": 3158,
      "lly": 3159,
      "ara": 3160,
      "Ġhistory": 3161,
      "Ġcrown": 3162,
      "ĠSh": 3163,
      "Ġteach": 3164,
      "Ġ...": 3165,
      "Ġthang": 3166,
      "Ġrecord": 3167,
      "Old": 3168,
      "ided": 3169,
      "itty": 3170,
      "Stra": 3171,
      "road": 3172,
      "Ġbusy": 3173,
      "Ġpleasure": 3174,
      "Ġfe": 3175,
      "Ġnation": 3176,
      "Ġrum": 3177,
      "Ġvalley": 3178,
      "Ġkilled": 3179,
      "Ġbeating": 3180,
      "Ġcrew": 3181,
      "Niggas": 3182,
      "Ġrising": 3183,
      "ORUS": 3184,
      "Des": 3185,
      "bird": 3186,
      "Ġbeer": 3187,
      "Ġimagine": 3188,
      "Ġkeeping": 3189,
      "Ġseat": 3190,
      "Su": 3191,
      "pa": 3192,
      "Ġnaked": 3193,
      "asting": 3194,
      "Tom": 3195,
      "ru": 3196,
      "Ġbite": 3197,
      "ished": 3198,
      "Ġpump": 3199,
      "Ġhiding": 3200,
      "Ġstage": 3201,
      "ĠRock": 3202,
      "Ġfur": 3203,
      "Head": 3204,
      "Ġburns": 3205,
      "Ġproblems": 3206,
      "Ġwreck": 3207,
      "Gl": 3208,
      "Hur": 3209,
      "bed": 3210,
      "ept": 3211,
      "ges": 3212,
      "ien": 3213,
      "Ġmood": 3214,
      "Ġtoy": 3215,
      "Ġeh": 3216,
      "Ġpocket": 3217,
      "Ġdad": 3218,
      "Ġblows": 3219,
      "Ġgrey": 3220,
      "ship": 3221,
      "Ġcrawl": 3222,
      "Ġmovie": 3223,
      "Ġthee": 3224,
      "Ġnose": 3225,
      "ĠBaby": 3226,
      "Ġembr": 3227,
      "Ġtelephone": 3228,
      "Young": 3229,
      "Ġwaited": 3230,
      "Ġwalks": 3231,
      "Ġgrew": 3232,
      "iction": 3233,
      "Ġbutter": 3234,
      "Ġbeats": 3235,
      "Ġsigns": 3236,
      "Ġfallen": 3237,
      "Ġhid": 3238,
      "Ġhonest": 3239,
      "Ġspit": 3240,
      "Ġfaster": 3241,
      "Ġhungry": 3242,
      "Made": 3243,
      "kn": 3244,
      "ĠZ": 3245,
      "Ġdesert": 3246,
      "Da": 3247,
      "ged": 3248,
      "Ġwash": 3249,
      "Ġplain": 3250,
      "Ġslide": 3251,
      "Ġsurround": 3252,
      "ĠĠĠĠĠĠĠĠ": 3253,
      "Ġtype": 3254,
      "Ooo": 3255,
      "Ġboss": 3256,
      "ancy": 3257,
      "Ġdeeper": 3258,
      "Ġmountains": 3259,
      "Hit": 3260,
      "Ġtakin": 3261,
      "Ġfish": 3262,
      "Ġfever": 3263,
      "Ġghetto": 3264,
      "White": 3265,
      "Ġtells": 3266,
      "ĠRe": 3267,
      "actly": 3268,
      "Ġpulled": 3269,
      "Ġmistakes": 3270,
      "Ġcigaret": 3271,
      "Ġ9": 3272,
      "ities": 3273,
      "Ġnatur": 3274,
      "stant": 3275,
      "Ġjam": 3276,
      "aine": 3277,
      "oph": 3278,
      "Gimme": 3279,
      "acing": 3280,
      "Ġshows": 3281,
      "Ġbegan": 3282,
      "Ġanswers": 3283,
      "Ġbrothers": 3284,
      "ada": 3285,
      "enny": 3286,
      "ified": 3287,
      "Ġheartache": 3288,
      "Way": 3289,
      "ĠDon": 3290,
      "Ġpictures": 3291,
      "Ġcourse": 3292,
      "Ġinnocent": 3293,
      "Ġmystery": 3294,
      "Kn": 3295,
      "ĠThat": 3296,
      "Ġwoke": 3297,
      "Ġmil": 3298,
      "Whenever": 3299,
      "Ġcoff": 3300,
      "Slow": 3301,
      "pers": 3302,
      "inal": 3303,
      "Ġsang": 3304,
      "ĠPr": 3305,
      "Ġtorn": 3306,
      "Te": 3307,
      "Ġsilly": 3308,
      "Ġweep": 3309,
      "Ġdaughter": 3310,
      "icated": 3311,
      "Ġshop": 3312,
      "Ġmark": 3313,
      "Ġbrave": 3314,
      "Ġflight": 3315,
      "ĠDo": 3316,
      "Ġrainy": 3317,
      "Ġwatched": 3318,
      "Sun": 3319,
      "Ġtable": 3320,
      "oned": 3321,
      "Ġseeing": 3322,
      "Ġfresh": 3323,
      "Hot": 3324,
      "Hand": 3325,
      "Round": 3326,
      "ually": 3327,
      "Ġ,": 3328,
      "onder": 3329,
      "Ġdat": 3330,
      "Ġroof": 3331,
      "Ġpaint": 3332,
      "----": 3333,
      "Born": 3334,
      "Damn": 3335,
      "jo": 3336,
      "ĠSo": 3337,
      "icket": 3338,
      "ifting": 3339,
      "Ġprote": 3340,
      "Ġchase": 3341,
      "Ġclosed": 3342,
      "fly": 3343,
      "aring": 3344,
      "umbling": 3345,
      "Ġsecrets": 3346,
      "Ġdiamonds": 3347,
      "ER": 3348,
      "High": 3349,
      "Wish": 3350,
      "aches": 3351,
      "Coming": 3352,
      "Bye": 3353,
      "Hop": 3354,
      "walk": 3355,
      "Ġlikes": 3356,
      "Ġlets": 3357,
      "Ġringing": 3358,
      "Ġcell": 3359,
      "ising": 3360,
      "Ġbridge": 3361,
      "Ġvis": 3362,
      "Ġhandle": 3363,
      "Ġresist": 3364,
      "Mr": 3365,
      "Ġmaster": 3366,
      "Ġling": 3367,
      "Ġthrew": 3368,
      "Ġease": 3369,
      "Ġbread": 3370,
      "Ġleavin": 3371,
      "Ġhoping": 3372,
      "Ġmoments": 3373,
      "Ġjeans": 3374,
      "Bea": 3375,
      "Wanna": 3376,
      "ax": 3377,
      "Which": 3378,
      "Ġvi": 3379,
      "iggy": 3380,
      "Ġlistening": 3381,
      "Ġwheels": 3382,
      "ĠFor": 3383,
      "inary": 3384,
      "ives": 3385,
      "Welcome": 3386,
      "Ġgrind": 3387,
      "Ġdisgu": 3388,
      "Ġgangsta": 3389,
      "ĠAmerica": 3390,
      "cker": 3391,
      "Ġled": 3392,
      "Ġlil": 3393,
      "hered": 3394,
      "Ġruns": 3395,
      "Ġdesper": 3396,
      "Ġattack": 3397,
      "Ġrapp": 3398,
      "Were": 3399,
      "Ġminutes": 3400,
      "Ġcolors": 3401,
      "Ġattention": 3402,
      "Ġdivine": 3403,
      "born": 3404,
      "ti": 3405,
      "icker": 3406,
      "Ġdesp": 3407,
      "Ġguys": 3408,
      "Ġjealous": 3409,
      "Straight": 3410,
      "Ġfood": 3411,
      "Ġfist": 3412,
      "Ġcook": 3413,
      "ille": 3414,
      "Ġchose": 3415,
      "Ġtryna": 3416,
      "Ġholds": 3417,
      "liness": 3418,
      "Wake": 3419,
      "huh": 3420,
      "Ġnon": 3421,
      "Their": 3422,
      "Three": 3423,
      "Ġnames": 3424,
      "Ġgroove": 3425,
      "Bu": 3426,
      "Mo": 3427,
      "Need": 3428,
      "aim": 3429,
      "ters": 3430,
      "Ġmonth": 3431,
      "En": 3432,
      "Red": 3433,
      "Ġthinks": 3434,
      "Real": 3435,
      "ogn": 3436,
      "Ġlaug": 3437,
      "Ġcompany": 3438,
      "ĠAll": 3439,
      "Ġhip": 3440,
      "alt": 3441,
      "Ġsteady": 3442,
      "sion": 3443,
      "Ġbank": 3444,
      "kend": 3445,
      "Ġoften": 3446,
      "Ġreasons": 3447,
      "ĠClaus": 3448,
      "ron": 3449,
      "Ġaction": 3450,
      "ety": 3451,
      "Ġeng": 3452,
      "Ġfro": 3453,
      "astic": 3454,
      "Ġbelieved": 3455,
      "Ġsingin": 3456,
      "Ġpromises": 3457,
      "Ġfading": 3458,
      "Ġstories": 3459,
      "ained": 3460,
      "eless": 3461,
      "ĠBe": 3462,
      "Step": 3463,
      "Ġcheap": 3464,
      "Ġbreathing": 3465,
      "Ġpoison": 3466,
      "Ġsuddenly": 3467,
      "ĠOr": 3468,
      "Ġholl": 3469,
      "ĠCal": 3470,
      "Ġwinds": 3471,
      "Ġsurely": 3472,
      "Going": 3473,
      "Ġmerry": 3474,
      "Ġclown": 3475,
      "ĠTr": 3476,
      "Ġholiday": 3477,
      "Ġrule": 3478,
      "Cut": 3479,
      "itude": 3480,
      "Ġgift": 3481,
      "eeter": 3482,
      "Ġsunny": 3483,
      "Ġcelebr": 3484,
      "Pick": 3485,
      "ĠShe": 3486,
      "unting": 3487,
      "ili": 3488,
      "Per": 3489,
      "Ġol": 3490,
      "Ġooo": 3491,
      "Ġinc": 3492,
      "eth": 3493,
      "Ġplane": 3494,
      "ossed": 3495,
      "mon": 3496,
      "kets": 3497,
      "Ġrag": 3498,
      "Ġstrugg": 3499,
      "Ġstrangers": 3500,
      "Ġbleeding": 3501,
      "Ġcandy": 3502,
      "Ġbounce": 3503,
      "Darling": 3504,
      "Ġwoo": 3505,
      "Ġbump": 3506,
      "Ġbigger": 3507,
      "ette": 3508,
      "Ġjour": 3509,
      "Christ": 3510,
      "Ġswallow": 3511,
      "Ġunf": 3512,
      "Ġtouched": 3513,
      "Ġweekend": 3514,
      "Ġbooty": 3515,
      "CHORUS": 3516,
      "Caught": 3517,
      "zz": 3518,
      "anted": 3519,
      "ĠMary": 3520,
      "Falling": 3521,
      "Pretty": 3522,
      "wo": 3523,
      "Ġwicked": 3524,
      "Ġcent": 3525,
      "Mother": 3526,
      "sit": 3527,
      "wty": 3528,
      "yy": 3529,
      "Ġemotion": 3530,
      "Ġdancin": 3531,
      "Holding": 3532,
      "Ġsymp": 3533,
      "iot": 3534,
      "nie": 3535,
      "ya": 3536,
      "ĠQu": 3537,
      "aker": 3538,
      "ames": 3539,
      "Ġsings": 3540,
      "Ġstayed": 3541,
      "Ġstands": 3542,
      "Ġunc": 3543,
      "Ġgener": 3544,
      "Ġcheek": 3545,
      "ners": 3546,
      "har": 3547,
      "Ġanim": 3548,
      "Ġworst": 3549,
      "atest": 3550,
      "Tryin": 3551,
      "Ġtale": 3552,
      "inc": 3553,
      "Ġwire": 3554,
      "Ġflo": 3555,
      "ately": 3556,
      "Ġsmart": 3557,
      "Ġsmiles": 3558,
      "Watching": 3559,
      "Aw": 3560,
      "Dear": 3561,
      "Wo": 3562,
      "ka": 3563,
      "Ġtied": 3564,
      "Ġmut": 3565,
      "ooked": 3566,
      "Ġtrick": 3567,
      "ĠSaturday": 3568,
      "Ġconvers": 3569,
      "Blood": 3570,
      "Ġwishing": 3571,
      "vo": 3572,
      "Ġdam": 3573,
      "Ġcas": 3574,
      "Ġcalm": 3575,
      "Ġshy": 3576,
      "Ġslave": 3577,
      "Ġcallin": 3578,
      "Ġmoved": 3579,
      "ograp": 3580,
      "Ġlaughed": 3581,
      "Ġpot": 3582,
      "ĠMay": 3583,
      "ooth": 3584,
      "Ġadmit": 3585,
      "agger": 3586,
      "itchen": 3587,
      "bl": 3588,
      "orld": 3589,
      "ales": 3590,
      "ĠCity": 3591,
      "Ġext": 3592,
      "ondon": 3593,
      "ments": 3594,
      "ĠStreet": 3595,
      "Ġbullet": 3596,
      "Ġsacrif": 3597,
      "Hope": 3598,
      "bit": 3599,
      "just": 3600,
      "oad": 3601,
      "Ġbass": 3602,
      "Ġcot": 3603,
      "Ġthug": 3604,
      "Ġviole": 3605,
      "Ġplays": 3606,
      "Ġexist": 3607,
      "Ġsituation": 3608,
      "Ġfil": 3609,
      "Ġpor": 3610,
      "ste": 3611,
      "Ġform": 3612,
      "Ġtruly": 3613,
      "Again": 3614,
      "ĠCar": 3615,
      "ossible": 3616,
      "Tomorrow": 3617,
      "Ġcher": 3618,
      "Ġhills": 3619,
      "Ġburnin": 3620,
      "Ġrocks": 3621,
      "ancing": 3622,
      "Ġflames": 3623,
      "Lover": 3624,
      "joy": 3625,
      "vation": 3626,
      "Ġbill": 3627,
      "Ġdy": 3628,
      "iforn": 3629,
      "Ġfunky": 3630,
      "Between": 3631,
      ".)": 3632,
      "ĠOne": 3633,
      "Ġcruel": 3634,
      "Ġgirlfriend": 3635,
      "Ġgreatest": 3636,
      "Ġlots": 3637,
      "Wonder": 3638,
      "Happy": 3639,
      "Ab": 3640,
      "she": 3641,
      "ays": 3642,
      "ular": 3643,
      "izz": 3644,
      "Ġbub": 3645,
      "ashion": 3646,
      "Ġdangerous": 3647,
      "Beaut": 3648,
      "Mmm": 3649,
      "pre": 3650,
      "wind": 3651,
      "eeze": 3652,
      "ades": 3653,
      "Ġflat": 3654,
      "ĠAr": 3655,
      "Ġvictim": 3656,
      "Count": 3657,
      "Sur": 3658,
      "mare": 3659,
      "Ġmotion": 3660,
      "Ġthy": 3661,
      "Ġlied": 3662,
      "Ġreve": 3663,
      "Ġdoctor": 3664,
      "fection": 3665,
      "Ġletting": 3666,
      "Ste": 3667,
      "hhh": 3668,
      "Ġmarried": 3669,
      "Ġdecide": 3670,
      "break": 3671,
      "ga": 3672,
      "stood": 3673,
      "Ġrow": 3674,
      "Ġguide": 3675,
      "ĠTex": 3676,
      "Ġwarning": 3677,
      "Ġtempt": 3678,
      "Ġticket": 3679,
      "Ġlip": 3680,
      "Ġtrail": 3681,
      "Ġhero": 3682,
      "Ġsav": 3683,
      "Getting": 3684,
      "Ġdarkest": 3685,
      "Hard": 3686,
      "Santa": 3687,
      "Ġkitchen": 3688,
      "Ġrail": 3689,
      "Ġcant": 3690,
      "nts": 3691,
      "ĠLet": 3692,
      "ĠGeor": 3693,
      "Ġwindows": 3694,
      "Although": 3695,
      "Ġpillow": 3696,
      "Bad": 3697,
      "aj": 3698,
      "irds": 3699,
      "Ġcrash": 3700,
      "Ġdefe": 3701,
      "ĠSha": 3702,
      "Ġstrike": 3703,
      "Ġstarting": 3704,
      "Ġcoat": 3705,
      "Fight": 3706,
      "Must": 3707,
      "ved": 3708,
      "Ġsteps": 3709,
      "Crazy": 3710,
      "Fa": 3711,
      "like": 3712,
      "Ġwedd": 3713,
      "Ġwhist": 3714,
      "Ġfright": 3715,
      "Ġlonging": 3716,
      "ĠFl": 3717,
      "shit": 3718,
      "Ġconfused": 3719,
      "Ġcircles": 3720,
      "Ġcandle": 3721,
      "Ġmiracle": 3722,
      "Miss": 3723,
      "Ġfif": 3724,
      "Ġdope": 3725,
      "unny": 3726,
      "ilty": 3727,
      "Ġtellin": 3728,
      "Ġamong": 3729,
      "Ġchamp": 3730,
      "Ġlately": 3731,
      "Wr": 3732,
      "Ġsittin": 3733,
      "Ġpear": 3734,
      "Ġrings": 3735,
      "ashed": 3736,
      "aded": 3737,
      "Ġallow": 3738,
      "Ġord": 3739,
      "ĠWill": 3740,
      "Ġopened": 3741,
      "Alright": 3742,
      "Ġrecogn": 3743,
      "ifornia": 3744,
      "Jump": 3745,
      "ased": 3746,
      "came": 3747,
      "Ġwha": 3748,
      "Ġbother": 3749,
      "Ġlick": 3750,
      "ading": 3751,
      "Ġshar": 3752,
      "ĠEarth": 3753,
      "Angel": 3754,
      "Blow": 3755,
      "Ġaffair": 3756,
      "Em": 3757,
      "Far": 3758,
      "cross": 3759,
      "Ġ]": 3760,
      "Ġchick": 3761,
      "Everyday": 3762,
      "Ġscars": 3763,
      "ĠDaddy": 3764,
      "Ġhardly": 3765,
      "Ġhoe": 3766,
      "ungle": 3767,
      "Speak": 3768,
      "Drink": 3769,
      "Ġsoldier": 3770,
      "Hook": 3771,
      "Words": 3772,
      "ility": 3773,
      "Ġhopes": 3774,
      "raw": 3775,
      "Ġcomplain": 3776,
      "Ġridin": 3777,
      "ii": 3778,
      "noon": 3779,
      "Ġ8": 3780,
      "Ġtick": 3781,
      "Ġhorn": 3782,
      "Ġjail": 3783,
      "umn": 3784,
      "Ġvain": 3785,
      "Ġwrapped": 3786,
      "beat": 3787,
      "Ġunderneath": 3788,
      "Wherever": 3789,
      "Ġdrinking": 3790,
      "Ġmonkey": 3791,
      "Ġtravel": 3792,
      "Ġnatural": 3793,
      "Tou": 3794,
      "Ġcrossed": 3795,
      "Thinking": 3796,
      "rum": 3797,
      "Ġpin": 3798,
      "Ġham": 3799,
      "imental": 3800,
      "Ġsmiled": 3801,
      "Ġappear": 3802,
      "Feels": 3803,
      "Took": 3804,
      "give": 3805,
      "ĠJack": 3806,
      "Ġscreen": 3807,
      "Ġhangin": 3808,
      "Ġembrace": 3809,
      "Ġdisguise": 3810,
      "Cold": 3811,
      "Such": 3812,
      "Ġwore": 3813,
      "immy": 3814,
      "ĠSanta": 3815,
      "Ġhits": 3816,
      "Ġdogs": 3817,
      "Ġconfess": 3818,
      "cr": 3819,
      "Ġwelcome": 3820,
      "alf": 3821,
      "ppin": 3822,
      "Ġwritten": 3823,
      "Ġleads": 3824,
      "ervous": 3825,
      ",\"": 3826,
      "Yet": 3827,
      "teen": 3828,
      "Ġpage": 3829,
      "Ġug": 3830,
      "gest": 3831,
      "ĠJe": 3832,
      "ricane": 3833,
      "Ġjudge": 3834,
      "Ġcoffee": 3835,
      "Fill": 3836,
      "ris": 3837,
      "Ġcab": 3838,
      "Ġpants": 3839,
      "Ġstream": 3840,
      "Ġrevolution": 3841,
      "Ġaside": 3842,
      "Together": 3843,
      "ucking": 3844,
      "Ġscar": 3845,
      "Ġguard": 3846,
      "Ġuniver": 3847,
      "Ġafternoon": 3848,
      "ollywood": 3849,
      "RE": 3850,
      "Ġdab": 3851,
      "Ġstation": 3852,
      "Ġclaim": 3853,
      "Somehow": 3854,
      "Ġchances": 3855,
      "ibb": 3856,
      "Ġlesson": 3857,
      "stem": 3858,
      "Ġhi": 3859,
      "Ġrepl": 3860,
      "Ġexactly": 3861,
      "AT": 3862,
      "till": 3863,
      "Ġpimp": 3864,
      "eally": 3865,
      "Ġpressure": 3866,
      "Ġjourney": 3867,
      "Que": 3868,
      "Ġdee": 3869,
      "Ġni": 3870,
      "Ġpost": 3871,
      "Ġbeast": 3872,
      "Ġdrove": 3873,
      "Ġrains": 3874,
      "back": 3875,
      "love": 3876,
      "arant": 3877,
      "Ġroo": 3878,
      "aly": 3879,
      "Ġspoke": 3880,
      "Ġflag": 3881,
      "Ġsche": 3882,
      "Alone": 3883,
      "Ġcurse": 3884,
      "Comin": 3885,
      "Pop": 3886,
      "Sure": 3887,
      "Ġtur": 3888,
      "hest": 3889,
      "Ġdough": 3890,
      "Ġpity": 3891,
      "Ġbeach": 3892,
      "Ġashes": 3893,
      "Child": 3894,
      "Ġswell": 3895,
      "nect": 3896,
      "Ġbarely": 3897,
      "Ġfortune": 3898,
      "pir": 3899,
      "uct": 3900,
      "Ġserve": 3901,
      "Ġdin": 3902,
      "Ġcovered": 3903,
      "Ġgoodnight": 3904,
      "venge": 3905,
      "Ġwherever": 3906,
      "Ready": 3907,
      "Ġbud": 3908,
      "Ġcircle": 3909,
      "Ġboots": 3910,
      "Ġmud": 3911,
      "nty": 3912,
      "Ġworkin": 3913,
      "Ġmotherfuckin": 3914,
      "Doesn": 3915,
      "ograph": 3916,
      "LL": 3917,
      "Tra": 3918,
      "hold": 3919,
      "Ġmile": 3920,
      "Ġbodies": 3921,
      "Ġloneliness": 3922,
      "Ġblowing": 3923,
      "Ġveins": 3924,
      "Knowing": 3925,
      "Ġneighbor": 3926,
      "ĠTexas": 3927,
      "Fire": 3928,
      "Ġcoc": 3929,
      "ishing": 3930,
      "Ġpu": 3931,
      "Ġforce": 3932,
      "omise": 3933,
      "Ġchop": 3934,
      "empt": 3935,
      "ĠWest": 3936,
      "Ġdirection": 3937,
      "Ġgy": 3938,
      "Ġnature": 3939,
      "Ġmend": 3940,
      "Ġweary": 3941,
      "Ġpolice": 3942,
      "Ġdestroy": 3943,
      "ites": 3944,
      "Ġhel": 3945,
      "Ġwhip": 3946,
      "Ġnote": 3947,
      "Ġweren": 3948,
      "Ġthroat": 3949,
      "Ġmelt": 3950,
      "Ġfaded": 3951,
      "Ġwander": 3952,
      "Might": 3953,
      "ba": 3954,
      "Ġton": 3955,
      "anity": 3956,
      "Ġpsy": 3957,
      "ĠCr": 3958,
      "Ġkissing": 3959,
      "Ġcoast": 3960,
      "Ġsadness": 3961,
      "Talking": 3962,
      "Ġrhymes": 3963,
      "')": 3964,
      "Bang": 3965,
      "Ġyuh": 3966,
      "repeat": 3967,
      "Ġrot": 3968,
      "Ġblessed": 3969,
      "Ġwilling": 3970,
      "ĠSouth": 3971,
      "Ġheavenly": 3972,
      "ledge": 3973,
      "yo": 3974,
      "ĠOn": 3975,
      "Ġlull": 3976,
      "Ġment": 3977,
      "Whis": 3978,
      "Ġflies": 3979,
      "ĠBoy": 3980,
      "azz": 3981,
      "ĠHell": 3982,
      "Ġshots": 3983,
      "Singing": 3984,
      "Ġborder": 3985,
      "Really": 3986,
      "rer": 3987,
      "arb": 3988,
      "arr": 3989,
      "idence": 3990,
      "arter": 3991,
      "Ġagree": 3992,
      "Ġsweeter": 3993,
      "Ġcond": 3994,
      "Ġbelieving": 3995,
      "Sit": 3996,
      "nc": 3997,
      "ule": 3998,
      "Ġtie": 3999,
      "Ġshowed": 4000,
      "Ġperf": 4001,
      "Ġconversation": 4002,
      "uction": 4003,
      "lla": 4004,
      "Ġfashion": 4005,
      "Ġdeb": 4006,
      "izon": 4007,
      "Ġsystem": 4008,
      "Music": 4009,
      "uit": 4010,
      "rel": 4011,
      "Ġbee": 4012,
      "Ġdate": 4013,
      "Ġstones": 4014,
      "ens": 4015,
      "Ġwriting": 4016,
      "Ġkiller": 4017,
      "Ġflower": 4018,
      "Ġbrighter": 4019,
      "Ġzone": 4020,
      "Ġsexy": 4021,
      "Ġteam": 4022,
      "Ġhyp": 4023,
      "lter": 4024,
      "when": 4025,
      "ĠX": 4026,
      "Ġcock": 4027,
      "ital": 4028,
      "Ġnightmare": 4029,
      "ĠCan": 4030,
      "Ġremains": 4031,
      "Ġeternity": 4032,
      "Bitch": 4033,
      "Catch": 4034,
      "Daddy": 4035,
      "Gone": 4036,
      "ĠHey": 4037,
      "Ġeag": 4038,
      "Ġloc": 4039,
      "Ġrust": 4040,
      "ened": 4041,
      "Ġnotice": 4042,
      "ression": 4043,
      "Ġawhile": 4044,
      "Ġwearing": 4045,
      "Ġimpossible": 4046,
      "Ġcure": 4047,
      "Ġrat": 4048,
      "Ġfloat": 4049,
      "Ġsweetest": 4050,
      "Ġlist": 4051,
      "chorus": 4052,
      "Ġstaring": 4053,
      "Ġsettle": 4054,
      "Ġmadness": 4055,
      "Ġtracks": 4056,
      "Ġletters": 4057,
      "Ġwoah": 4058,
      "Ġsacrifice": 4059,
      "Je": 4060,
      "Ġsum": 4061,
      "Ġnervous": 4062,
      "Ġroam": 4063,
      "Ġdistant": 4064,
      "Sitting": 4065,
      "ressed": 4066,
      "Ġlou": 4067,
      "hamed": 4068,
      "oooo": 4069,
      "Ġknee": 4070,
      "Ġsweetheart": 4071,
      "Ġplanned": 4072,
      "Ġsoftly": 4073,
      "Ġsuffer": 4074,
      "Ġfurther": 4075,
      "Ġugly": 4076,
      "Ġbum": 4077,
      "Ġcats": 4078,
      "Ġforward": 4079,
      "ico": 4080,
      "Everywhere": 4081,
      "Ġholdin": 4082,
      "Ġstops": 4083,
      "Ġsins": 4084,
      "ĠLouis": 4085,
      "Most": 4086,
      "ger": 4087,
      "Ġsou": 4088,
      "Ġbop": 4089,
      "Ġpan": 4090,
      "star": 4091,
      "Ġonto": 4092,
      "Ġelect": 4093,
      "ative": 4094,
      "iced": 4095,
      "Ġjack": 4096,
      "Ġwanting": 4097,
      "Ġflip": 4098,
      "ĠBig": 4099,
      "Ġmotherfuckers": 4100,
      "Ġraised": 4101,
      "Ġhammer": 4102,
      "AN": 4103,
      "Sear": 4104,
      "Tear": 4105,
      "Taking": 4106,
      "kind": 4107,
      "mo": 4108,
      "Ġfac": 4109,
      "mes": 4110,
      "Ġshape": 4111,
      "Ġbuilding": 4112,
      "Talkin": 4113,
      "____": 4114,
      "Beautiful": 4115,
      "Ġblew": 4116,
      "Ġlab": 4117,
      "Ġlang": 4118,
      "Drop": 4119,
      "Bridge": 4120,
      "uce": 4121,
      "Ġlit": 4122,
      "haps": 4123,
      "Ġgivin": 4124,
      "lex": 4125,
      "Ġtrap": 4126,
      "Ġflash": 4127,
      "agne": 4128,
      "ĠLondon": 4129,
      "Ġrolled": 4130,
      "Pray": 4131,
      "ĠJohnny": 4132,
      "Ġlyric": 4133,
      "Ġwedding": 4134,
      "work": 4135,
      "ala": 4136,
      "ushing": 4137,
      "ĠHar": 4138,
      "Ġsucc": 4139,
      "Ġflowing": 4140,
      "Ġimagination": 4141,
      "Tears": 4142,
      "Whe": 4143,
      "iers": 4144,
      "lend": 4145,
      "Ġdisease": 4146,
      "Goin": 4147,
      "ĠMonday": 4148,
      "Ġcowboy": 4149,
      "fer": 4150,
      "Ġmap": 4151,
      "Ġours": 4152,
      "Ġphot": 4153,
      "Ġwasting": 4154,
      "Freedom": 4155,
      "Ġcigarette": 4156,
      "Half": 4157,
      "Ġlane": 4158,
      "ano": 4159,
      "orry": 4160,
      "ken": 4161,
      "sence": 4162,
      "icate": 4163,
      "Instead": 4164,
      "Ġwaits": 4165,
      "Ġbringing": 4166,
      "Ġacting": 4167,
      "Scream": 4168,
      "Ġangry": 4169,
      "Ġpurple": 4170,
      "Ġtail": 4171,
      "Ġlack": 4172,
      "orty": 4173,
      "Ġpet": 4174,
      "aming": 4175,
      "Ġlightning": 4176,
      "Ġheaded": 4177,
      "Ġshade": 4178,
      "Ġcommand": 4179,
      "Ġboogie": 4180,
      "baby": 4181,
      "Ġsir": 4182,
      "Ġmain": 4183,
      "Ġpale": 4184,
      "Ġeast": 4185,
      "utter": 4186,
      "ida": 4187,
      "Ġshirt": 4188,
      "oser": 4189,
      "Ġcomb": 4190,
      "Ġguilty": 4191,
      "Ġbullshit": 4192,
      "Ġrelig": 4193,
      "lon": 4194,
      "lasting": 4195,
      "why": 4196,
      "Ġrage": 4197,
      "ense": 4198,
      "Ġdepend": 4199,
      "Ġsevent": 4200,
      "Ġpresent": 4201,
      "Ġrestless": 4202,
      "Ġmetal": 4203,
      "ival": 4204,
      "Ġburied": 4205,
      "ios": 4206,
      "ino": 4207,
      "Ġsna": 4208,
      "Ġfal": 4209,
      "Ġbecame": 4210,
      "Ġhaunt": 4211,
      "Ġrent": 4212,
      "ĠAt": 4213,
      "Ġcared": 4214,
      "Ġhotel": 4215,
      "hhhh": 4216,
      "Carry": 4217,
      "Pass": 4218,
      "Sad": 4219,
      "cue": 4220,
      "who": 4221,
      "Ġaim": 4222,
      "Ġwol": 4223,
      "Ġbase": 4224,
      "Ġlust": 4225,
      "Ġcard": 4226,
      "Ġgather": 4227,
      "Ġeither": 4228,
      "icious": 4229,
      "Ġreme": 4230,
      "Ġflows": 4231,
      "Ġseas": 4232,
      "Ġener": 4233,
      "Ġsuit": 4234,
      "psy": 4235,
      "Ġdanced": 4236,
      "Many": 4237,
      "Ġcreep": 4238,
      "Ar": 4239,
      "ĠJust": 4240,
      "Ġtun": 4241,
      "Ġsake": 4242,
      "Ġopp": 4243,
      "ushed": 4244,
      "Ġashamed": 4245,
      "Ġsepar": 4246,
      "Ġsmooth": 4247,
      "John": 4248,
      "Sail": 4249,
      "with": 4250,
      "Ġfancy": 4251,
      "Ġcops": 4252,
      "Ġtot": 4253,
      "Ġraw": 4254,
      "Ġrelease": 4255,
      "Ġblast": 4256,
      "izzy": 4257,
      "Ġbecomes": 4258,
      "ĠAmerican": 4259,
      "Ġeasily": 4260,
      "ĠQueen": 4261,
      "Woo": 4262,
      "ja": 4263,
      "Ġborrow": 4264,
      "Ġforty": 4265,
      "ication": 4266,
      "Ġrepeat": 4267,
      "Ġwhenever": 4268,
      "Ġshell": 4269,
      "Ask": 4270,
      "Ġplanet": 4271,
      "Mi": 4272,
      "Ġtha": 4273,
      "Ġgay": 4274,
      "Ġpair": 4275,
      "Ġhesit": 4276,
      "Ġliqu": 4277,
      "Ġshed": 4278,
      "ĠSav": 4279,
      "Ġunderground": 4280,
      "Ġchasing": 4281,
      "pless": 4282,
      "Ġdrops": 4283,
      "Leaving": 4284,
      "Ġkeys": 4285,
      "Ġterr": 4286,
      "'.": 4287,
      "ON": 4288,
      "eg": 4289,
      "rome": 4290,
      "tes": 4291,
      "Ġmatch": 4292,
      "Ġyard": 4293,
      "Ġpow": 4294,
      "Ġric": 4295,
      "aching": 4296,
      "aling": 4297,
      "Lets": 4298,
      "Ġtreasure": 4299,
      "Ġconfusion": 4300,
      "known": 4301,
      "gan": 4302,
      "zing": 4303,
      "Ġgain": 4304,
      "Ġpal": 4305,
      "Ġsaving": 4306,
      "Ġohh": 4307,
      "Ġdrift": 4308,
      "Ġdrugs": 4309,
      "Ġscrew": 4310,
      "ĠAh": 4311,
      "Ġroads": 4312,
      "aff": 4313,
      "ium": 4314,
      "ham": 4315,
      "Ġcage": 4316,
      "Ġgat": 4317,
      "Ġisland": 4318,
      "ppy": 4319,
      "Ġdrug": 4320,
      "ĠLee": 4321,
      "Ġrivers": 4322,
      "Ring": 4323,
      "Ġpool": 4324,
      "arty": 4325,
      "Ġvac": 4326,
      "Lookin": 4327,
      "Ġapolog": 4328,
      "Ġdespair": 4329,
      "Ġordinary": 4330,
      "Mur": 4331,
      "Ride": 4332,
      "Ġtast": 4333,
      "ounce": 4334,
      "Ġbars": 4335,
      "augh": 4336,
      "Ġproc": 4337,
      "ĠMC": 4338,
      "Ġwrist": 4339,
      "Ġprep": 4340,
      "Ġmarry": 4341,
      "Ġfamous": 4342,
      "Ġcompletely": 4343,
      "Ġur": 4344,
      "eared": 4345,
      "Ġorder": 4346,
      "Ġmission": 4347,
      "Ġwitness": 4348,
      "Ġfaithful": 4349,
      "Ġwisdom": 4350,
      "clock": 4351,
      "Loving": 4352,
      "Amer": 4353,
      "Ġlamb": 4354,
      "Ġweap": 4355,
      "onely": 4356,
      "ured": 4357,
      "Ġamazing": 4358,
      "Ġstrip": 4359,
      "ĠDay": 4360,
      "lights": 4361,
      "ĠOK": 4362,
      "Imag": 4363,
      "Ġsleigh": 4364,
      "Ġfrozen": 4365,
      "Home": 4366,
      "some": 4367,
      "ĠUn": 4368,
      "Ġduck": 4369,
      "ari": 4370,
      "Ġpun": 4371,
      "Them": 4372,
      "enz": 4373,
      "enness": 4374,
      "abe": 4375,
      "Ġproof": 4376,
      "Ġchorus": 4377,
      "ubl": 4378,
      "Ġbedroom": 4379,
      "Ġbelongs": 4380,
      "Ġbury": 4381,
      "Ġrefuse": 4382,
      "Ġtwisted": 4383,
      "Ġarrive": 4384,
      "Ġprotect": 4385,
      "Dis": 4386,
      "Mon": 4387,
      "low": 4388,
      "Ġrode": 4389,
      "Ġlazy": 4390,
      "Ġhappening": 4391,
      "Ġbabies": 4392,
      "frain": 4393,
      "Ġclosing": 4394,
      "Ġanger": 4395,
      "ĠCalifornia": 4396,
      ").": 4397,
      "Cuz": 4398,
      "Sn": 4399,
      "co": 4400,
      "con": 4401,
      "son": 4402,
      "Ġsi": 4403,
      "Ġpist": 4404,
      "Ġstom": 4405,
      "ooled": 4406,
      "ores": 4407,
      "Ġtrigger": 4408,
      "Ġworried": 4409,
      "ession": 4410,
      "Ġconstant": 4411,
      "Ġoffer": 4412,
      "Ġstays": 4413,
      "Ġenjoy": 4414,
      "Ġnamed": 4415,
      "Ġprayers": 4416,
      "orses": 4417,
      "agged": 4418,
      "ĠFriday": 4419,
      "Ġuniverse": 4420,
      "Dark": 4421,
      "Off": 4422,
      "War": 4423,
      "ders": 4424,
      "face": 4425,
      "Ġsus": 4426,
      "ustr": 4427,
      "Ġdowntown": 4428,
      "Ġaren": 4429,
      "Ġclick": 4430,
      "Ġhunger": 4431,
      "Grab": 4432,
      "fall": 4433,
      "gia": 4434,
      "Ġfold": 4435,
      "Ġpicked": 4436,
      "Ġstret": 4437,
      "Ġdaylight": 4438,
      "Ġturnin": 4439,
      "Ġhurting": 4440,
      "Ġapple": 4441,
      "Ġowe": 4442,
      "Boom": 4443,
      "Sile": 4444,
      "Ġtip": 4445,
      "Ġshat": 4446,
      "Ġtoes": 4447,
      "Ġstud": 4448,
      "icide": 4449,
      "Ġreign": 4450,
      "Ġleather": 4451,
      "ĠCome": 4452,
      "Ġstere": 4453,
      "Ġdesign": 4454,
      "cience": 4455,
      "Ġdropped": 4456,
      "Ġmagaz": 4457,
      "board": 4458,
      "Ġdrowning": 4459,
      "Ġidea": 4460,
      "Ġmilk": 4461,
      "End": 4462,
      "pose": 4463,
      "uk": 4464,
      "Ġbon": 4465,
      "Ġlu": 4466,
      "Ġoo": 4467,
      "illa": 4468,
      "Ġable": 4469,
      "Ġpriv": 4470,
      "Ġguarant": 4471,
      "Ġraining": 4472,
      "Ġempt": 4473,
      "Couldn": 4474,
      "Ġplenty": 4475,
      "Ġsimply": 4476,
      "Ġceiling": 4477,
      "Ġsquare": 4478,
      "Ġsqueeze": 4479,
      "Ġrecognize": 4480,
      "Ev": 4481,
      "Funny": 4482,
      "itter": 4483,
      "otions": 4484,
      "Ġjew": 4485,
      "antic": 4486,
      "Ġdont": 4487,
      "Ġdreamin": 4488,
      "Behind": 4489,
      "Ġshoulders": 4490,
      "ĠTHE": 4491,
      "Ġworked": 4492,
      "Ġstrings": 4493,
      "Ġuns": 4494,
      "aws": 4495,
      "Ġfades": 4496,
      "box": 4497,
      "Ġverse": 4498,
      "Meet": 4499,
      "band": 4500,
      "got": 4501,
      "xy": 4502,
      "Ġfoc": 4503,
      "Ġshock": 4504,
      "ams": 4505,
      "venue": 4506,
      "osing": 4507,
      "Ġgrin": 4508,
      "athy": 4509,
      "Ġhopeless": 4510,
      "Ġbuzz": 4511,
      "Ġcharms": 4512,
      "Ġreached": 4513,
      "Kick": 4514,
      "pet": 4515,
      "ĠOf": 4516,
      "Ġfan": 4517,
      "Ġthirty": 4518,
      "Ġkicks": 4519,
      "Ġtrans": 4520,
      "Ġcrib": 4521,
      "Ġdeg": 4522,
      "Ġspoken": 4523,
      "Ġcling": 4524,
      "Ġclue": 4525,
      "Ġflood": 4526,
      "Ġstring": 4527,
      "Ġshaking": 4528,
      "Ġhimself": 4529,
      "Ġstepped": 4530,
      "ivers": 4531,
      "Ġteacher": 4532,
      "lax": 4533,
      "dered": 4534,
      "Next": 4535,
      "Ġadvice": 4536,
      "Pap": 4537,
      "Rain": 4538,
      "Ġtan": 4539,
      "Ġmor": 4540,
      "Ġnin": 4541,
      "Ġtrace": 4542,
      "ando": 4543,
      "ulf": 4544,
      "Super": 4545,
      "Ġenergy": 4546,
      "gun": 4547,
      "ians": 4548,
      "Ġsize": 4549,
      "haf": 4550,
      "Ġecho": 4551,
      "ids": 4552,
      "ella": 4553,
      "elly": 4554,
      "Ġtrapped": 4555,
      "amed": 4556,
      "ola": 4557,
      "Ġcards": 4558,
      "Nothin": 4559,
      "Ġblowin": 4560,
      "Saying": 4561,
      "Ġboard": 4562,
      "Ġdollars": 4563,
      "ĠBrown": 4564,
      "IT": 4565,
      "Ġstairs": 4566,
      "Ġrelax": 4567,
      "Ġseed": 4568,
      "Ġtrade": 4569,
      "andy": 4570,
      "ĠPe": 4571,
      "Ġholes": 4572,
      "Ġsmokin": 4573,
      "Ġcotton": 4574,
      "Ġwan": 4575,
      "Ġjungle": 4576,
      "Ġworlds": 4577,
      "ĠDr": 4578,
      "Ġstandin": 4579,
      "Death": 4580,
      "Ġserious": 4581,
      "Ġchampagne": 4582,
      "Bout": 4583,
      "Four": 4584,
      "Laugh": 4585,
      "cket": 4586,
      "Ġsway": 4587,
      "Ġmat": 4588,
      "Ġmass": 4589,
      "Ġribb": 4590,
      "acy": 4591,
      "ality": 4592,
      "ĠHow": 4593,
      "Ġnearly": 4594,
      "Unless": 4595,
      "Ġknocking": 4596,
      "Ġcommon": 4597,
      "Ġautumn": 4598,
      "Ay": 4599,
      "Ġfare": 4600,
      "stal": 4601,
      "esse": 4602,
      "Ġcrush": 4603,
      "Ġsheets": 4604,
      "oking": 4605,
      "Ġvan": 4606,
      "ĠHollywood": 4607,
      "Ġglor": 4608,
      "Ġgreed": 4609,
      "ĠEng": 4610,
      "Breat": 4611,
      "Ġmotor": 4612,
      "Ġeasier": 4613,
      "iant": 4614,
      "nel": 4615,
      "there": 4616,
      "Ġdim": 4617,
      "Ġfed": 4618,
      "Ġhorses": 4619,
      "Ġuna": 4620,
      "Ġcheer": 4621,
      "True": 4622,
      "Calling": 4623,
      "Ġbags": 4624,
      "ennessee": 4625,
      "Ad": 4626,
      "Five": 4627,
      "Res": 4628,
      "Sil": 4629,
      "bing": 4630,
      "bound": 4631,
      "Ġsip": 4632,
      "leans": 4633,
      "Ġstumble": 4634,
      "urs": 4635,
      "Ġsunlight": 4636,
      "Ġsunset": 4637,
      "Ġworks": 4638,
      "Ġdemons": 4639,
      "Ġcharm": 4640,
      "Ġgeneration": 4641,
      "Used": 4642,
      "miss": 4643,
      "roll": 4644,
      "ville": 4645,
      "yal": 4646,
      "ĠWhen": 4647,
      "Ġdet": 4648,
      "ĠIf": 4649,
      "Ġest": 4650,
      "Ġsolo": 4651,
      "hern": 4652,
      "Ġshakin": 4653,
      "ĠJul": 4654,
      "Ġfinish": 4655,
      "Ġvel": 4656,
      "Sec": 4657,
      "Ġbooks": 4658,
      "Feelin": 4659,
      "Mom": 4660,
      "Mem": 4661,
      "Son": 4662,
      "Told": 4663,
      "vern": 4664,
      "ado": 4665,
      "icy": 4666,
      "Ġcontin": 4667,
      "cient": 4668,
      "Ġlearning": 4669,
      "Peace": 4670,
      "Ġwaters": 4671,
      "Ġpistol": 4672,
      "Ba": 4673,
      "afe": 4674,
      "Ġpig": 4675,
      "ighty": 4676,
      "Ġheartbeat": 4677,
      "Ġsplit": 4678,
      "Ġwhose": 4679,
      "ĠMother": 4680,
      "Ġcarried": 4681,
      "Ġshades": 4682,
      "Ġsatisfy": 4683,
      "uzz": 4684,
      "Ġstereo": 4685,
      "'?": 4686,
      "cer": 4687,
      "Ġheels": 4688,
      "cend": 4689,
      "Ġsailing": 4690,
      "Ġabs": 4691,
      "Ġslee": 4692,
      "Ġmoan": 4693,
      "ĠTime": 4694,
      "play": 4695,
      "Ġsens": 4696,
      "Ġshooting": 4697,
      "Ġhomie": 4698,
      "Ġstruggle": 4699,
      "Ġwhistle": 4700,
      "Touch": 4701,
      "sha": 4702,
      "Ġrip": 4703,
      "Ġblown": 4704,
      "Ġvill": 4705,
      "Ġeverlasting": 4706,
      "Ġrescue": 4707,
      "Ġloaded": 4708,
      "Across": 4709,
      "Ġtumble": 4710,
      "Ġbas": 4711,
      "itches": 4712,
      "anny": 4713,
      "outhern": 4714,
      "iger": 4715,
      "itta": 4716,
      "Ġdrivin": 4717,
      "ĠSc": 4718,
      "Ġshared": 4719,
      "Ġscore": 4720,
      "kers": 4721,
      "Spin": 4722,
      "Ġsuppose": 4723,
      "Ġsentimental": 4724,
      "icken": 4725,
      "iliar": 4726,
      "five": 4727,
      "Ġmam": 4728,
      "Ġcy": 4729,
      "Ġnorth": 4730,
      "isa": 4731,
      "Ġlimit": 4732,
      "ically": 4733,
      "Ġwont": 4734,
      "Ġgranted": 4735,
      "Ġbreakin": 4736,
      "Ġquarter": 4737,
      "Ġsets": 4738,
      "hys": 4739,
      "Ġcounting": 4740,
      "Ġsenses": 4741,
      "Ġfairy": 4742,
      "Ġhealing": 4743,
      "Ġgently": 4744,
      "Ġinnocence": 4745,
      "Ġreaching": 4746,
      "ĠOrleans": 4747,
      "Ġviolence": 4748,
      "Ġlung": 4749,
      "Ġcream": 4750,
      "ese": 4751,
      "Ġattr": 4752,
      "Ġspare": 4753,
      "ĠBlack": 4754,
      "Ġhelpless": 4755,
      "Away": 4756,
      "Sound": 4757,
      "can": 4758,
      "Ġcu": 4759,
      "Ġpink": 4760,
      "Ġpave": 4761,
      "asc": 4762,
      "Ġreceive": 4763,
      "asty": 4764,
      "ĠSw": 4765,
      "Ġillusion": 4766,
      "?]": 4767,
      "Dead": 4768,
      "Sk": 4769,
      "Summer": 4770,
      "Ġtalked": 4771,
      "Ġbath": 4772,
      "Ġlar": 4773,
      "orr": 4774,
      "Ġthick": 4775,
      "uses": 4776,
      "Ġsale": 4777,
      "ĠGet": 4778,
      "Shit": 4779,
      "ugar": 4780,
      "Ġcreature": 4781,
      "Ġsnake": 4782,
      "Ġtax": 4783,
      "Ġafford": 4784,
      "Burning": 4785,
      "Ġharmony": 4786,
      "Fin": 4787,
      "Hi": 4788,
      "run": 4789,
      "ram": 4790,
      "ora": 4791,
      "eam": 4792,
      "Ġworn": 4793,
      "Ġchicks": 4794,
      "Ġ--": 4795,
      "Ġcheat": 4796,
      "ĠEm": 4797,
      "Ġkingdom": 4798,
      "Ġhorizon": 4799,
      "Ġignore": 4800,
      "dream": 4801,
      "of": 4802,
      "see": 4803,
      "Ġtin": 4804,
      "Ġdun": 4805,
      "Ġhollow": 4806,
      "adill": 4807,
      "enn": 4808,
      "Ġupside": 4809,
      "Ġneon": 4810,
      "Ġwashed": 4811,
      "cember": 4812,
      "Ġdelight": 4813,
      "ĠMex": 4814,
      "ires": 4815,
      "angled": 4816,
      "azed": 4817,
      "Ġunknown": 4818,
      "Shut": 4819,
      "ĠFather": 4820,
      "Ġbloody": 4821,
      "Breaking": 4822,
      "Ġmaj": 4823,
      "Ġsurprised": 4824,
      "Ġmovies": 4825,
      "Woah": 4826,
      "Ġreligion": 4827,
      "Holy": 4828,
      "King": 4829,
      "Rem": 4830,
      "Ġbal": 4831,
      "ĠInd": 4832,
      "Ġdew": 4833,
      "Ġspl": 4834,
      "Ġdrank": 4835,
      "Ġstray": 4836,
      "ĠDJ": 4837,
      "ĠPar": 4838,
      "Ġmissin": 4839,
      "Ġthrone": 4840,
      "Trust": 4841,
      "Ġdemon": 4842,
      "Ġdecided": 4843,
      "Ġwhiskey": 4844,
      "Ġzero": 4845,
      "Ġhealth": 4846,
      "Ġcontent": 4847,
      "Ġundone": 4848,
      "Ġnumbers": 4849,
      "Ġfeather": 4850,
      "Cos": 4851,
      "gen": 4852,
      "rise": 4853,
      "Ġdum": 4854,
      "Ġgaze": 4855,
      "Ġnuh": 4856,
      "erk": 4857,
      "Ġhavin": 4858,
      "iddle": 4859,
      "Ġshelter": 4860,
      "Ġbru": 4861,
      "Ġbrick": 4862,
      "olate": 4863,
      "osp": 4864,
      "ĠRoll": 4865,
      "Ġgloom": 4866,
      "Ġdaw": 4867,
      "Ġhurricane": 4868,
      "Ġaccept": 4869,
      "Ġaware": 4870,
      "Ġawful": 4871,
      "Ġsalvation": 4872,
      "adillac": 4873,
      "Ma": 4874,
      "Ġ7": 4875,
      "ĠBut": 4876,
      "Ġfog": 4877,
      "Ġmead": 4878,
      "Ġloss": 4879,
      "aken": 4880,
      "Ġfrag": 4881,
      "ilight": 4882,
      "Ġcareful": 4883,
      "Ġpulling": 4884,
      "Ġparade": 4885,
      "aaaa": 4886,
      "Ġpatient": 4887,
      "Ġsinking": 4888,
      "Ġmodern": 4889,
      "Ġanimal": 4890,
      "Same": 4891,
      "Woman": 4892,
      "awn": 4893,
      "uke": 4894,
      "Ġwing": 4895,
      "Ġpeep": 4896,
      "irgin": 4897,
      "Ġjet": 4898,
      "Ġcrit": 4899,
      "Ġbutt": 4900,
      "agic": 4901,
      "Ġstress": 4902,
      "Ġgreater": 4903,
      "Ġthrown": 4904,
      "iano": 4905,
      "ĠBlue": 4906,
      "Ġhidden": 4907,
      "Ġlinger": 4908,
      "Ġelectric": 4909,
      "Dancing": 4910,
      "aving": 4911,
      "wards": 4912,
      "Ġtab": 4913,
      "Ġthirst": 4914,
      "urb": 4915,
      "Ġshin": 4916,
      "ĠSm": 4917,
      "Ġvow": 4918,
      "Ġwah": 4919,
      "Ġended": 4920,
      "Isn": 4921,
      "Ġdrives": 4922,
      "Ġpleas": 4923,
      "Ġlullaby": 4924,
      "Ġfalse": 4925,
      "AR": 4926,
      "Around": 4927,
      "Face": 4928,
      "Lift": 4929,
      "ique": 4930,
      "ware": 4931,
      "Ġtour": 4932,
      "Ġnerve": 4933,
      "Ġrope": 4934,
      "amble": 4935,
      "ilin": 4936,
      "Ġprayed": 4937,
      "ĠYOU": 4938,
      "Broken": 4939,
      "Ġjumped": 4940,
      "Ġposition": 4941,
      "Children": 4942,
      "yard": 4943,
      "Ġmm": 4944,
      "Ġbored": 4945,
      "Ġdiss": 4946,
      "Ġcake": 4947,
      "Ġcos": 4948,
      "Ġhook": 4949,
      "Ġtri": 4950,
      "Ġspine": 4951,
      "ĠSu": 4952,
      "Ġslam": 4953,
      "Ġstaying": 4954,
      "Ġrocking": 4955,
      "Ġfills": 4956,
      "Ġprof": 4957,
      "Underneath": 4958,
      "Change": 4959,
      "Whisper": 4960,
      "Bright": 4961,
      "Giving": 4962,
      "Mary": 4963,
      "Yesterday": 4964,
      "Ġbore": 4965,
      "vet": 4966,
      "Ġpare": 4967,
      "Ġthorn": 4968,
      "Ġkings": 4969,
      "Ġtricks": 4970,
      "Ġworship": 4971,
      "igo": 4972,
      "ĠMo": 4973,
      "olation": 4974,
      "Forgive": 4975,
      "quer": 4976,
      "Ġexper": 4977,
      "Ġforest": 4978,
      "Ġpouring": 4979,
      "Ġemptiness": 4980,
      "Si": 4981,
      "Six": 4982,
      "Ten": 4983,
      "Ġtap": 4984,
      "hem": 4985,
      "Ġyonder": 4986,
      "vest": 4987,
      "Ġlake": 4988,
      "Ġbein": 4989,
      "lev": 4990,
      "Ġrare": 4991,
      "Ġdrama": 4992,
      "Ġdrifting": 4993,
      "ucky": 4994,
      "Ġswitch": 4995,
      "Star": 4996,
      "rete": 4997,
      "ĠRed": 4998,
      "Shout": 4999,
      "Ġheavens": 5000,
      "pril": 5001,
      "Ġhighest": 5002,
      "eneath": 5003,
      "Ġknockin": 5004,
      "Ġpushing": 5005,
      "***": 5006,
      "Ġintent": 5007,
      "cher": 5008,
      "mble": 5009,
      "Ġbail": 5010,
      "Ġding": 5011,
      "Ġdah": 5012,
      "Ġfought": 5013,
      "Ġintr": 5014,
      "aka": 5015,
      "Ġvib": 5016,
      "ĠPl": 5017,
      "udd": 5018,
      "Ġpasses": 5019,
      "Ġpraying": 5020,
      "Ġdemand": 5021,
      "Ġcollect": 5022,
      "Ġerase": 5023,
      "Ġfifty": 5024,
      "Hate": 5025,
      "Lonely": 5026,
      "Other": 5027,
      "Spend": 5028,
      "dest": 5029,
      "wh": 5030,
      "arrow": 5031,
      "Ġjingle": 5032,
      "Ġneg": 5033,
      "Ġplastic": 5034,
      "Ġhears": 5035,
      "ĠTennessee": 5036,
      "Ġglove": 5037,
      "Ġemotions": 5038,
      "Ġlaying": 5039,
      "Brother": 5040,
      "Ok": 5041,
      "Raise": 5042,
      "Ġhaunting": 5043,
      "Ġbliss": 5044,
      "Ġbroad": 5045,
      "Ġspill": 5046,
      "Ġvol": 5047,
      "Ġgrip": 5048,
      "Ġplayer": 5049,
      "ĠHoly": 5050,
      "pered": 5051,
      "Reach": 5052,
      "Ġcoal": 5053,
      "Ġ19": 5054,
      "Ġpretending": 5055,
      "Ġpurpose": 5056,
      "ING": 5057,
      "ophone": 5058,
      "Ġmention": 5059,
      "Whether": 5060,
      "Ġwolf": 5061,
      "Came": 5062,
      "Cool": 5063,
      "Dig": 5064,
      "Oooh": 5065,
      "Word": 5066,
      "Ġmort": 5067,
      "Ġbills": 5068,
      "Ġdice": 5069,
      "Ġpunk": 5070,
      "Ġequ": 5071,
      "idin": 5072,
      "ights": 5073,
      "Ġdove": 5074,
      "hens": 5075,
      "ific": 5076,
      "Ġclap": 5077,
      "berry": 5078,
      "Ġhaters": 5079,
      "ĠWay": 5080,
      "Twenty": 5081,
      "Ġrider": 5082,
      "Ġdisco": 5083,
      "Ġconscience": 5084,
      "Ġscratch": 5085,
      "Ġsmoking": 5086,
      "Ġhustle": 5087,
      "Push": 5088,
      "fast": 5089,
      "nam": 5090,
      "int": 5091,
      "Ġded": 5092,
      "Ġflew": 5093,
      "Ġgee": 5094,
      "Ġreap": 5095,
      "enter": 5096,
      "Ġtrippin": 5097,
      "Ġprize": 5098,
      "igging": 5099,
      "Ġunderstood": 5100,
      "Ġrolls": 5101,
      "Seeing": 5102,
      "alent": 5103,
      "Ġdinner": 5104,
      "Ġbuddy": 5105,
      "Moon": 5106,
      "house": 5107,
      "ĠNow": 5108,
      "Ġaching": 5109,
      "Ġmus": 5110,
      "Ġlame": 5111,
      "Ġnor": 5112,
      "Ġmental": 5113,
      "iddy": 5114,
      "irm": 5115,
      "ours": 5116,
      "ĠMc": 5117,
      "ĠSam": 5118,
      "ĠHallelujah": 5119,
      "Telling": 5120,
      "icted": 5121,
      "Ġ10": 5122,
      "Ġregrets": 5123,
      "Ġchosen": 5124,
      "Jingle": 5125,
      "ME": 5126,
      "gue": 5127,
      "por": 5128,
      "sl": 5129,
      "ument": 5130,
      "Ġtoast": 5131,
      "Ġliar": 5132,
      "Ġknocked": 5133,
      "Ġshoe": 5134,
      "Ġframe": 5135,
      "Ġscare": 5136,
      "Ġfailed": 5137,
      "ippi": 5138,
      "obby": 5139,
      "Ġtearing": 5140,
      "ĠIsland": 5141,
      "ĠAlab": 5142,
      "Ġconcern": 5143,
      "attoo": 5144,
      "Ġlouder": 5145,
      "Fool": 5146,
      "ald": 5147,
      "isible": 5148,
      "Ġbeha": 5149,
      "Ġbloom": 5150,
      "ago": 5151,
      "ĠGirl": 5152,
      "Ġexcept": 5153,
      "place": 5154,
      "Drive": 5155,
      "Ġattitude": 5156,
      "Ġgladly": 5157,
      "Ġweakness": 5158,
      "Ġhonor": 5159,
      "Ġbirthday": 5160,
      "Lead": 5161,
      "Ġay": 5162,
      "Ġnorm": 5163,
      "Ġstack": 5164,
      "ening": 5165,
      "Ġtrash": 5166,
      "Ġprod": 5167,
      "issippi": 5168,
      "Ġfinding": 5169,
      "ĠJune": 5170,
      "Ġpreacher": 5171,
      "Ġcuts": 5172,
      "iana": 5173,
      "Ġmotherfucking": 5174,
      "Ġmonster": 5175,
      "Ġhallelujah": 5176,
      "\",": 5177,
      "Dirty": 5178,
      "VE": 5179,
      "cess": 5180,
      "cent": 5181,
      "tell": 5182,
      "Ġtooth": 5183,
      "Ġnasty": 5184,
      "eral": 5185,
      "Ġthief": 5186,
      "Ġforth": 5187,
      "Ġalso": 5188,
      "Ġcrashing": 5189,
      "Ġspr": 5190,
      "ulture": 5191,
      "Ġamor": 5192,
      "Ġboyfriend": 5193,
      "Ġarrow": 5194,
      "Ġarmy": 5195,
      "Rest": 5196,
      "Ġdrinkin": 5197,
      "Ġrecords": 5198,
      "Ġinspir": 5199,
      "Ġcourage": 5200,
      "Playing": 5201,
      "ĠDecember": 5202,
      "ĠAngel": 5203,
      "rupt": 5204,
      "Ġgypsy": 5205,
      "chan": 5206,
      "Ġdip": 5207,
      "Ġmeat": 5208,
      "Ġinse": 5209,
      "cks": 5210,
      "Ġheroes": 5211,
      "Ġplus": 5212,
      "Ġaint": 5213,
      "Ġlend": 5214,
      "Ġchrome": 5215,
      "igga": 5216,
      "Ġthanks": 5217,
      "Shine": 5218,
      "Shoot": 5219,
      "Ġcreation": 5220,
      "Ġpoppin": 5221,
      "Ġburden": 5222,
      "Ġsolid": 5223,
      "Ġunto": 5224,
      "Ġiron": 5225,
      "Beneath": 5226,
      "Del": 5227,
      "fire": 5228,
      "lt": 5229,
      "nes": 5230,
      "Ġwaking": 5231,
      "ism": 5232,
      "Ġpon": 5233,
      "lection": 5234,
      "Ġstock": 5235,
      "Ġrealized": 5236,
      "Ġcaress": 5237,
      "Ġputting": 5238,
      "Ġfunk": 5239,
      "ĠEl": 5240,
      "Ġyounger": 5241,
      "Ġdenied": 5242,
      "Ġpushed": 5243,
      "Ġbutterfly": 5244,
      "Ġholler": 5245,
      "Ġneighborhood": 5246,
      "Ġlungs": 5247,
      "Eyes": 5248,
      "Found": 5249,
      "Livin": 5250,
      "bum": 5251,
      "Ġgle": 5252,
      "Ġtoe": 5253,
      "otic": 5254,
      "Ġegg": 5255,
      "utch": 5256,
      "ifts": 5257,
      "gend": 5258,
      "Ġbetray": 5259,
      "Ġwrap": 5260,
      "Ġpainted": 5261,
      "Keeps": 5262,
      "uesday": 5263,
      "Ġimage": 5264,
      "Ġbullets": 5265,
      "Faith": 5266,
      "Ġhypnot": 5267,
      "Dest": 5268,
      "bin": 5269,
      "eh": 5270,
      "hop": 5271,
      "rate": 5272,
      "your": 5273,
      "happy": 5274,
      "Ġhips": 5275,
      "alth": 5276,
      "Ġjustice": 5277,
      "roup": 5278,
      "Ġblink": 5279,
      "Ġcrim": 5280,
      "Ohh": 5281,
      "Ġdriver": 5282,
      "Beat": 5283,
      "Ġsits": 5284,
      "Ġfollowed": 5285,
      "Ġfamiliar": 5286,
      "Ġsneak": 5287,
      "Ġforeign": 5288,
      "Ġmicr": 5289,
      "Ġjuice": 5290,
      "vious": 5291,
      "Ġven": 5292,
      "ĠThis": 5293,
      "Ġbold": 5294,
      "Ġbunch": 5295,
      "Ġdea": 5296,
      "Ġgate": 5297,
      "Ġocc": 5298,
      "unts": 5299,
      "Ġcrumble": 5300,
      "Ġherself": 5301,
      "ĠSan": 5302,
      "Ġgrav": 5303,
      "this": 5304,
      "ĠDog": 5305,
      "aughty": 5306,
      "Shad": 5307,
      "Ġcreated": 5308,
      "Ġcurtain": 5309,
      "Ġserv": 5310,
      "Ġvictory": 5311,
      "ĠGeorgia": 5312,
      "Searching": 5313,
      "Doo": 5314,
      "Full": 5315,
      "Sud": 5316,
      "pha": 5317,
      "tan": 5318,
      "Ġgates": 5319,
      "lear": 5320,
      "atan": 5321,
      "Ġrout": 5322,
      "Ġfrown": 5323,
      "ĠChe": 5324,
      "ĠDown": 5325,
      "Ġbelieves": 5326,
      "Ġsucker": 5327,
      "Spread": 5328,
      "Ġcompare": 5329,
      "Ġtroubled": 5330,
      "Crying": 5331,
      "Ġmedic": 5332,
      "bop": 5333,
      "look": 5334,
      "Ġastr": 5335,
      "Ġwipe": 5336,
      "Ġcoo": 5337,
      "Ġgamb": 5338,
      "stick": 5339,
      "ato": 5340,
      "Ġancient": 5341,
      "elve": 5342,
      "Ġscen": 5343,
      "ember": 5344,
      "Ġgreet": 5345,
      "Ġdrums": 5346,
      "Sudden": 5347,
      "Ro": 5348,
      "Wild": 5349,
      "Ġmour": 5350,
      "Ġmail": 5351,
      "Ġdude": 5352,
      "Ġrevenge": 5353,
      "irit": 5354,
      "Ġshiver": 5355,
      "Ġshiny": 5356,
      "Ġblaze": 5357,
      "ĠAfr": 5358,
      "Ġcrystal": 5359,
      "Ġhardest": 5360,
      "Ġsidewalk": 5361,
      "Ġtouching": 5362,
      "Ġdrinks": 5363,
      "Swing": 5364,
      "Ġstormy": 5365,
      "Ġcrawling": 5366,
      "Ġdreamer": 5367,
      "Ġsuffering": 5368,
      "Hoping": 5369,
      "Lose": 5370,
      "gn": 5371,
      "Ġsons": 5372,
      "Ġpee": 5373,
      "Ġcru": 5374,
      "ures": 5375,
      "Ġsword": 5376,
      "ĠGo": 5377,
      "ĠJuly": 5378,
      "Ġunless": 5379,
      "rench": 5380,
      "Ġpres": 5381,
      "Ġfollowing": 5382,
      "they": 5383,
      "Seven": 5384,
      "uggin": 5385,
      "Ġsoldiers": 5386,
      "Ġforgiveness": 5387,
      "Strong": 5388,
      "Ġobs": 5389,
      "Ġruin": 5390,
      "flies": 5391,
      "Ġinspiration": 5392,
      "Dem": 5393,
      "Par": 5394,
      "real": 5395,
      "Ġcal": 5396,
      "Ġgods": 5397,
      "Ġbrid": 5398,
      "ĠMa": 5399,
      "ĠSe": 5400,
      "Ġval": 5401,
      "Ġchrist": 5402,
      "Ġparts": 5403,
      "Ġhumble": 5404,
      "coming": 5405,
      "Ġsacred": 5406,
      "drops": 5407,
      "isco": 5408,
      "Ġphotograph": 5409,
      "Johnny": 5410,
      "Imagine": 5411,
      "Diam": 5412,
      "Win": 5413,
      "birds": 5414,
      "lock": 5415,
      "Ġ!": 5416,
      "esome": 5417,
      "immer": 5418,
      "Ġpra": 5419,
      "ĠJones": 5420,
      "Ġstopping": 5421,
      "Ġtalks": 5422,
      "ardon": 5423,
      "Ġnails": 5424,
      "Ġblinded": 5425,
      "Ġfigured": 5426,
      "Ġextra": 5427,
      "Ġseparate": 5428,
      "Act": 5429,
      "Gee": 5430,
      "Pain": 5431,
      "cst": 5432,
      "girl": 5433,
      "uary": 5434,
      "Ġwid": 5435,
      "Ġgin": 5436,
      "Ġmessed": 5437,
      "Ġpiss": 5438,
      "lem": 5439,
      "akers": 5440,
      "Ġshowing": 5441,
      "Ġflyin": 5442,
      "Ġbegging": 5443,
      "Ġcolder": 5444,
      "Looks": 5445,
      "Ġdiff": 5446,
      "Ġchoir": 5447,
      "Ġtemper": 5448,
      "Ġhonky": 5449,
      "Ġloser": 5450,
      "Suddenly": 5451,
      "ww": 5452,
      "while": 5453,
      "Ġwars": 5454,
      "itive": 5455,
      "Ġnut": 5456,
      "Ġpace": 5457,
      "Ġinde": 5458,
      "ĠJames": 5459,
      "ighs": 5460,
      "Ġsuicide": 5461,
      "Ġaffection": 5462,
      "Read": 5463,
      "cially": 5464,
      "Ġsetting": 5465,
      "Blind": 5466,
      "Ġpapers": 5467,
      "Ġcrowded": 5468,
      "Ġreflect": 5469,
      "Ġbottles": 5470,
      "Rollin": 5471,
      "Fear": 5472,
      "Gold": 5473,
      "Lately": 5474,
      "hou": 5475,
      "yr": 5476,
      "Ġide": 5477,
      "Ġfooled": 5478,
      "Ġthird": 5479,
      "Ġego": 5480,
      "Ġreck": 5481,
      "iffe": 5482,
      "ĠLa": 5483,
      "ĠBar": 5484,
      "Ġseh": 5485,
      "Ġsung": 5486,
      "ĠApril": 5487,
      "Ġtwilight": 5488,
      "Being": 5489,
      "ĠRome": 5490,
      "Ġmarch": 5491,
      "Ġsatisfaction": 5492,
      "Ġexcuse": 5493,
      "Except": 5494,
      "Ġmask": 5495,
      "Murder": 5496,
      "Breathe": 5497,
      "Ġvelvet": 5498,
      "Care": 5499,
      "Saw": 5500,
      "Sittin": 5501,
      "gs": 5502,
      "Ġil": 5503,
      "Ġti": 5504,
      "itation": 5505,
      "Ġphys": 5506,
      "Ġstat": 5507,
      "Ġrebel": 5508,
      "Ġshelf": 5509,
      "Ġhearing": 5510,
      "ulous": 5511,
      "...)": 5512,
      "Ġcovers": 5513,
      "mmm": 5514,
      "Ġpeaceful": 5515,
      "Ġpoet": 5516,
      "Ġenemies": 5517,
      "Ġperfume": 5518,
      "Ġliquor": 5519,
      "Ra": 5520,
      "ĠThere": 5521,
      "Ġpills": 5522,
      "stop": 5523,
      "Ġhay": 5524,
      "Ġgovern": 5525,
      "lyn": 5526,
      "Ġprog": 5527,
      "ĠBill": 5528,
      "Ġstroll": 5529,
      "Ġcareless": 5530,
      "ĠRose": 5531,
      "Ġpresence": 5532,
      "Ġwinning": 5533,
      "Ġsuperstar": 5534,
      "Ġeternal": 5535,
      "--------": 5536,
      "Ġpearls": 5537,
      "Father": 5538,
      "Wind": 5539,
      "sin": 5540,
      "Ġtape": 5541,
      "Ġpacked": 5542,
      "Ġhus": 5543,
      "Ġhug": 5544,
      "Ġliber": 5545,
      "Ġbrains": 5546,
      "Ġwonders": 5547,
      "ĠMem": 5548,
      "ĠSl": 5549,
      "Ġchicken": 5550,
      "Comes": 5551,
      "ĠPaul": 5552,
      "udes": 5553,
      "Ġkillin": 5554,
      "ucci": 5555,
      "Turning": 5556,
      "Dreams": 5557,
      "Ġtease": 5558,
      "tured": 5559,
      "Ġmixed": 5560,
      "Ġfocus": 5561,
      "ulfill": 5562,
      "Sugar": 5563,
      "Ġ)": 5564,
      "Ġ{": 5565,
      "Ġsour": 5566,
      "Ġdue": 5567,
      "Ġtoss": 5568,
      "stone": 5569,
      "Ġthugs": 5570,
      "Ġstab": 5571,
      "ooo": 5572,
      "Ġsometime": 5573,
      "ĠSte": 5574,
      "agon": 5575,
      "ĠLe": 5576,
      "Ġshawty": 5577,
      "ĠCadillac": 5578,
      "bered": 5579,
      "Ġhasn": 5580,
      "Gettin": 5581,
      "Ġchew": 5582,
      "ortant": 5583,
      "Ġseasons": 5584,
      "Ġtowards": 5585,
      "Ġlyin": 5586,
      "Hanging": 5587,
      "Ġdesperate": 5588,
      "Ġdyin": 5589,
      "Ġbubble": 5590,
      "Ġprivate": 5591,
      "Lear": 5592,
      "Sell": 5593,
      "li": 5594,
      "never": 5595,
      "ux": 5596,
      "ys": 5597,
      "reg": 5598,
      "Ġga": 5599,
      "Ġnaughty": 5600,
      "Ġpha": 5601,
      "Ġinte": 5602,
      "omer": 5603,
      "Ġfors": 5604,
      "Ġgodd": 5605,
      "ĠGood": 5606,
      "ĠCha": 5607,
      "Ġbreakfast": 5608,
      "Ġdamned": 5609,
      "Ġpapa": 5610,
      "Ġentertain": 5611,
      "Working": 5612,
      "Christmas": 5613,
      "Ġunfold": 5614,
      "Mad": 5615,
      "Ph": 5616,
      "Pour": 5617,
      "Sorry": 5618,
      "ĠUp": 5619,
      "resent": 5620,
      "Ġdizzy": 5621,
      "Ġoil": 5622,
      "Ġriot": 5623,
      "Ġpract": 5624,
      "oline": 5625,
      "Ġrunaway": 5626,
      "Ġdaily": 5627,
      "Ġkinds": 5628,
      "ĠEast": 5629,
      "Girls": 5630,
      "Ġterror": 5631,
      "Ġpockets": 5632,
      "Ġconcrete": 5633,
      "Ġswimming": 5634,
      "Slowly": 5635,
      "Ġviol": 5636,
      "Ġmuthaf": 5637,
      "Ġallowed": 5638,
      "ĠMexico": 5639,
      "Green": 5640,
      "Went": 5641,
      "Ġwiggy": 5642,
      "Ġmate": 5643,
      "Ġthread": 5644,
      "Ġstoned": 5645,
      "Ġwealth": 5646,
      "inda": 5647,
      "aud": 5648,
      "ĠMama": 5649,
      "Ġlevel": 5650,
      "Ġchoke": 5651,
      "Ġfinds": 5652,
      "Ġconnect": 5653,
      "aves": 5654,
      "ĠCon": 5655,
      "Ġsunrise": 5656,
      "Beyond": 5657,
      "Ġshower": 5658,
      "Shining": 5659,
      "Ġyearning": 5660,
      "Ġreflection": 5661,
      "Ġexpress": 5662,
      "Knock": 5663,
      "Ġlangu": 5664,
      "Ġmagazine": 5665,
      "Lying": 5666,
      "ĠWhy": 5667,
      "Ġcust": 5668,
      "Ġmeasure": 5669,
      "Ġbent": 5670,
      "Ġknowledge": 5671,
      "urity": 5672,
      "Ġtraff": 5673,
      "Ġwillow": 5674,
      "pping": 5675,
      "ĠSon": 5676,
      "Ġlemon": 5677,
      "Stars": 5678,
      "iends": 5679,
      "ipper": 5680,
      "Ġprov": 5681,
      "chant": 5682,
      "Ġtenderness": 5683,
      "Ġsisters": 5684,
      "ĠDevil": 5685,
      "Ġcelebrate": 5686,
      "Ġcocaine": 5687,
      "ĠSavior": 5688,
      "ublic": 5689,
      "Die": 5690,
      "Ġtone": 5691,
      "eech": 5692,
      "stairs": 5693,
      "pper": 5694,
      "Incom": 5695,
      "Ġflav": 5696,
      "Ġkissin": 5697,
      "Ġunderstanding": 5698,
      "Ġdancer": 5699,
      "Ġweeks": 5700,
      "Ġwishes": 5701,
      "Smoke": 5702,
      "Ġsearchin": 5703,
      "Ġoughta": 5704,
      "Ġterrible": 5705,
      "Finally": 5706,
      "Ġbridges": 5707,
      "Lady": 5708,
      "None": 5709,
      "coh": 5710,
      "lish": 5711,
      "rr": 5712,
      "ras": 5713,
      "Ġtumbling": 5714,
      "Ġtiger": 5715,
      "Ġcous": 5716,
      "Ġnuts": 5717,
      "Ġhaze": 5718,
      "Ġshove": 5719,
      "Ġsplend": 5720,
      "Ġanytime": 5721,
      "pecially": 5722,
      "Ġputs": 5723,
      "Ġsleepin": 5724,
      "Ġwatchin": 5725,
      "Ġlistened": 5726,
      "Ġawesome": 5727,
      "Ġworthy": 5728,
      "Wouldn": 5729,
      "Ġdecision": 5730,
      "ugged": 5731,
      "agedy": 5732,
      "Ġrailroad": 5733,
      "cohol": 5734,
      "Easy": 5735,
      "di": 5736,
      "die": 5737,
      "ĠWhere": 5738,
      "rect": 5739,
      "rella": 5740,
      "Ġfence": 5741,
      "Ġpant": 5742,
      "Ġlog": 5743,
      "alo": 5744,
      "east": 5745,
      "aints": 5746,
      "Ġheartbreak": 5747,
      "Whose": 5748,
      "Staring": 5749,
      "ĠAnt": 5750,
      "Ġfires": 5751,
      "Ġbiggest": 5752,
      "Blame": 5753,
      "Ġ???": 5754,
      "Ġdiscover": 5755,
      "Ġlifted": 5756,
      "Ġsalt": 5757,
      "ĠNoel": 5758,
      "Ġindeed": 5759,
      "Ġuntr": 5760,
      "Ġproper": 5761,
      "steps": 5762,
      "prehens": 5763,
      "Ġmedicine": 5764,
      "Ġtraffic": 5765,
      "prehensible": 5766,
      "Boo": 5767,
      "fraid": 5768,
      "hell": 5769,
      "llow": 5770,
      "anish": 5771,
      "erves": 5772,
      "Ġinna": 5773,
      "Ġkicked": 5774,
      "iel": 5775,
      "Ġwhore": 5776,
      "ĠLike": 5777,
      "ĠBilly": 5778,
      "Ġglance": 5779,
      "Takes": 5780,
      "Ġchem": 5781,
      "Ġlotta": 5782,
      "Ġcute": 5783,
      "Anyone": 5784,
      "Ġbelly": 5785,
      "Walkin": 5786,
      "eyed": 5787,
      "Flying": 5788,
      "Ġmonths": 5789,
      "Ġdamage": 5790,
      "Above": 5791,
      "Ġtemptation": 5792,
      "Ġfacts": 5793,
      "Silver": 5794,
      "Memories": 5795,
      "every": 5796,
      "mighty": 5797,
      "ued": 5798,
      "Ġmaid": 5799,
      "Ġder": 5800,
      "owing": 5801,
      "ority": 5802,
      "isions": 5803,
      "Ġko": 5804,
      "Ġlim": 5805,
      "adle": 5806,
      "Ġalley": 5807,
      "Ġtries": 5808,
      "Ġshorty": 5809,
      "Ġdeceive": 5810,
      "ols": 5811,
      "Ġsweep": 5812,
      "Ġlegend": 5813,
      "apan": 5814,
      "ĠBenz": 5815,
      "ĠChar": 5816,
      "ĠJenny": 5817,
      "Ġtrains": 5818,
      "Outside": 5819,
      "Ġexplode": 5820,
      "phis": 5821,
      "Ġpenny": 5822,
      "Dreaming": 5823,
      "Ġrepresent": 5824,
      "Ġstolen": 5825,
      "ĠMississippi": 5826,
      "Ġfloating": 5827,
      "Ġreveal": 5828,
      "Ġsuccess": 5829,
      "Ġhesitate": 5830,
      "alentine": 5831,
      "Ġhusband": 5832,
      "Aye": 5833,
      "Merry": 5834,
      "Picture": 5835,
      "Riding": 5836,
      "ints": 5837,
      "Ġfulfill": 5838,
      "Ġstall": 5839,
      "Ġstair": 5840,
      "igher": 5841,
      "ists": 5842,
      "ĠSome": 5843,
      "Ġresp": 5844,
      "Driving": 5845,
      "Anyway": 5846,
      "Ġdread": 5847,
      "Ġselfish": 5848,
      "Moving": 5849,
      "Body": 5850,
      "Rise": 5851,
      "pher": 5852,
      "Ġmmm": 5853,
      "Ġdive": 5854,
      "Ġcenter": 5855,
      "Ġpages": 5856,
      "Ġhitta": 5857,
      "oma": 5858,
      "Ġdaydream": 5859,
      "Soft": 5860,
      "Ġthemselves": 5861,
      "ountain": 5862,
      "Ġsleepy": 5863,
      "Ġwinner": 5864,
      "Ġfinished": 5865,
      "Ġremin": 5866,
      "Ġleader": 5867,
      "Ġ12": 5868,
      "Promise": 5869,
      "Ġcircus": 5870,
      "Heard": 5871,
      "Ġcolle": 5872,
      "Ġdestruction": 5873,
      "Ġwounds": 5874,
      "Hurry": 5875,
      "Ġtoys": 5876,
      "Ġengine": 5877,
      "Ġbubb": 5878,
      "Silent": 5879,
      "Ġshattered": 5880,
      "Ġmeadow": 5881,
      "Co": 5882,
      "Very": 5883,
      "Ġcoke": 5884,
      "Ġinst": 5885,
      "Ġhmm": 5886,
      "icago": 5887,
      "Ġjoint": 5888,
      "Ġwhirl": 5889,
      "nage": 5890,
      "ament": 5891,
      "Ġkeepin": 5892,
      "Ġstrain": 5893,
      "ĠJah": 5894,
      "ĠPh": 5895,
      "shot": 5896,
      "ormation": 5897,
      "Ġwhispered": 5898,
      "Thinkin": 5899,
      "Ġdesires": 5900,
      "000": 5901,
      "Ġignor": 5902,
      "cstasy": 5903,
      "Grow": 5904,
      "ca": 5905,
      "car": 5906,
      "ij": 5907,
      "Ġtar": 5908,
      "Ġtiny": 5909,
      "Ġtales": 5910,
      "Ġtattoo": 5911,
      "Ġcore": 5912,
      "Ġtore": 5913,
      "Ġpalm": 5914,
      "sters": 5915,
      "Ġwears": 5916,
      "omin": 5917,
      "Ġshook": 5918,
      "Ġblan": 5919,
      "Ġheartaches": 5920,
      "ums": 5921,
      "Ġrocket": 5922,
      "ances": 5923,
      "Ġscreams": 5924,
      "Ġclearly": 5925,
      "Ġburst": 5926,
      "Ġspirits": 5927,
      "Strange": 5928,
      "respect": 5929,
      "Ġsymph": 5930,
      "Incomprehensible": 5931,
      ".,": 5932,
      "Babe": 5933,
      "Hide": 5934,
      "Mind": 5935,
      "Water": 5936,
      "Ġtim": 5937,
      "Ġbast": 5938,
      "Ġpit": 5939,
      "Ġtrunk": 5940,
      "Ġspray": 5941,
      "ula": 5942,
      "ĠTO": 5943,
      "ocolate": 5944,
      "Ġfarm": 5945,
      "Ġkindness": 5946,
      "Tried": 5947,
      "Ġswinging": 5948,
      "Ġfantas": 5949,
      "Ġpossib": 5950,
      "Ġdebt": 5951,
      "Bust": 5952,
      "Craw": 5953,
      "Ġmater": 5954,
      "Ġbeep": 5955,
      "Ġpoin": 5956,
      "attered": 5957,
      "Ġrab": 5958,
      "oms": 5959,
      "Ġliked": 5960,
      "ags": 5961,
      "ipt": 5962,
      "Ġsmash": 5963,
      "Ġheading": 5964,
      "Ġmister": 5965,
      "Ġsatell": 5966,
      "Ġdoubts": 5967,
      "Ġtraveling": 5968,
      "Conf": 5969,
      "ĠSpring": 5970,
      "Ġpossible": 5971,
      "Ġparents": 5972,
      "Both": 5973,
      "Birds": 5974,
      "bell": 5975,
      "cul": 5976,
      "orms": 5977,
      "aya": 5978,
      "Ġod": 5979,
      "Ġhound": 5980,
      "Ġlion": 5981,
      "omatic": 5982,
      "Ġjunk": 5983,
      "Ġdrain": 5984,
      "ĠMer": 5985,
      "Ġchim": 5986,
      "Ġamb": 5987,
      "empl": 5988,
      "Ġsleeps": 5989,
      "istence": 5990,
      "Ġpreach": 5991,
      "Ġawait": 5992,
      "Rolling": 5993,
      "Fresh": 5994,
      "Hands": 5995,
      "Enough": 5996,
      "Ġsavior": 5997,
      "ĠAlabama": 5998,
      "OL": 5999,
      "Pay": 6000,
      "Rel": 6001,
      "af": 6002,
      "ec": 6003,
      "uer": 6004,
      "Ġgoose": 6005,
      "atisf": 6006,
      "irts": 6007,
      "ellow": 6008,
      "Ġshr": 6009,
      "Ġalcohol": 6010,
      "oodoo": 6011,
      "ims": 6012,
      "imate": 6013,
      "eeds": 6014,
      "Ġhearted": 6015,
      "Ġswore": 6016,
      "ĠCap": 6017,
      "Ġfriendly": 6018,
      "ĠWorld": 6019,
      "Ġwitch": 6020,
      "Plus": 6021,
      "Ġrisk": 6022,
      "Having": 6023,
      "Build": 6024,
      "Ġnormal": 6025,
      "Flo": 6026,
      "life": 6027,
      "Ġlamp": 6028,
      "Ġfem": 6029,
      "Ġrev": 6030,
      "Ġrefrain": 6031,
      "choes": 6032,
      "Ġfruit": 6033,
      "Ġrole": 6034,
      "ĠSept": 6035,
      "Ġchin": 6036,
      "Ġhadn": 6037,
      "ĠLittle": 6038,
      "Ġcompr": 6039,
      "Stick": 6040,
      "angle": 6041,
      "Ġhatred": 6042,
      "Ġsteppin": 6043,
      "Ġfinest": 6044,
      "Ġfellas": 6045,
      "Ġappro": 6046,
      "Ġsending": 6047,
      "Ġexcited": 6048,
      "Perhaps": 6049,
      "Ġgovernment": 6050,
      "ĠSeptember": 6051,
      "Ahh": 6052,
      "Cross": 6053,
      "bs": 6054,
      "field": 6055,
      "lor": 6056,
      "take": 6057,
      "whe": 6058,
      "rees": 6059,
      "Ġpul": 6060,
      "Ġpuff": 6061,
      "icha": 6062,
      "tern": 6063,
      "Ġsheep": 6064,
      "Ġslipped": 6065,
      "Ġslipping": 6066,
      "ĠBeth": 6067,
      "ĠAm": 6068,
      "Ġtwelve": 6069,
      "ciety": 6070,
      "Ġcaused": 6071,
      "ĠOut": 6072,
      "Goodnight": 6073,
      "Ġmillions": 6074,
      "Ġballs": 6075,
      "Exc": 6076,
      "Ġquickly": 6077,
      "Ġsharp": 6078,
      "Ġlyrics": 6079,
      "Ġweapon": 6080,
      "ĠMemphis": 6081,
      "Di": 6082,
      "EN": 6083,
      "Li": 6084,
      "Much": 6085,
      "Sunday": 6086,
      "Wishing": 6087,
      "aver": 6088,
      "eous": 6089,
      "press": 6090,
      "oured": 6091,
      "Ġlimb": 6092,
      "asp": 6093,
      "ede": 6094,
      "antage": 6095,
      "chin": 6096,
      "Ġtragedy": 6097,
      "Ġworries": 6098,
      "Ġaband": 6099,
      "Ġdrawn": 6100,
      "Ġwondered": 6101,
      "Ġclay": 6102,
      "Ġbelief": 6103,
      "Stuck": 6104,
      "Ġconvin": 6105,
      "Ġguilt": 6106,
      "Ġlasts": 6107,
      "Ġfooling": 6108,
      "ending": 6109,
      "Ġthru": 6110,
      "Runnin": 6111,
      "Climb": 6112,
      "Ġsixteen": 6113,
      "Ġpolit": 6114,
      "Ġrubber": 6115,
      "Ġvisit": 6116,
      "Ġporch": 6117,
      "Ġlocal": 6118,
      "pse": 6119,
      "ral": 6120,
      "Ġties": 6121,
      "Ġbike": 6122,
      "hal": 6123,
      "ĠIm": 6124,
      "ston": 6125,
      "Ġsho": 6126,
      "amin": 6127,
      "Ġcruc": 6128,
      "umps": 6129,
      "Ġbreed": 6130,
      "Ġhotter": 6131,
      "Keeping": 6132,
      "Ġdrew": 6133,
      "Ġmelting": 6134,
      "Ġexcuses": 6135,
      "Ġbombs": 6136,
      "Ġsympathy": 6137,
      "Trapped": 6138,
      "Ġlanguage": 6139,
      "Ġuntrue": 6140,
      "Bur": 6141,
      "Cover": 6142,
      "Ly": 6143,
      "Makin": 6144,
      "doo": 6145,
      "sk": 6146,
      "rey": 6147,
      "Ġtomb": 6148,
      "Ġmellow": 6149,
      "Ġpip": 6150,
      "Ġeating": 6151,
      "Ġstain": 6152,
      "Ġsore": 6153,
      "chy": 6154,
      "Ġshown": 6155,
      "Ġalarm": 6156,
      "ila": 6157,
      "Ġplate": 6158,
      "Ġbride": 6159,
      "ĠSqu": 6160,
      "Ġleaf": 6161,
      "Doing": 6162,
      "Ġtremb": 6163,
      "Ġmeets": 6164,
      "Ġleading": 6165,
      "Drown": 6166,
      "Ġappe": 6167,
      "Ġmisty": 6168,
      "Ġwhispers": 6169,
      "uckers": 6170,
      "Ġghosts": 6171,
      "Ġblessing": 6172,
      "Ġinvisible": 6173,
      "Ġadvantage": 6174,
      "Ġscheme": 6175,
      "ES": 6176,
      "Gave": 6177,
      "Mir": 6178,
      "Nah": 6179,
      "OK": 6180,
      "Pa": 6181,
      "Warm": 6182,
      "will": 6183,
      "Ġbong": 6184,
      "Ġlas": 6185,
      "Ġdot": 6186,
      "Ġcred": 6187,
      "isin": 6188,
      "Ġhost": 6189,
      "lehem": 6190,
      "Ġant": 6191,
      "ĠLisa": 6192,
      "Ġseren": 6193,
      "ĠRos": 6194,
      "Ġspeaks": 6195,
      "Twist": 6196,
      "ĠSpanish": 6197,
      "Ġchillin": 6198,
      "Ġparking": 6199,
      "Ġdepth": 6200,
      "Glory": 6201,
      "Ġeagle": 6202,
      "Ġdegree": 6203,
      "Ġmicrophone": 6204,
      "ĠAfrica": 6205,
      "Emp": 6206,
      "Late": 6207,
      "Tired": 6208,
      "ĠWell": 6209,
      "Ġsack": 6210,
      "Ġsire": 6211,
      "Ġwow": 6212,
      "Ġmall": 6213,
      "Ġinner": 6214,
      "Ġthou": 6215,
      "Ġeff": 6216,
      "lean": 6217,
      "Ġsocial": 6218,
      "Ġalbum": 6219,
      "fered": 6220,
      "Ġplot": 6221,
      "Ġages": 6222,
      "ĠJimmy": 6223,
      "ouses": 6224,
      "Ġenc": 6225,
      "izing": 6226,
      "Ġfreeze": 6227,
      "Ġhandsome": 6228,
      "Ġ20": 6229,
      "laim": 6230,
      "Ġdistr": 6231,
      "aggin": 6232,
      "Ġimportant": 6233,
      "Ġescap": 6234,
      "Ġjuke": 6235,
      "altz": 6236,
      "Ġdefend": 6237,
      "Jealous": 6238,
      "Ġseventeen": 6239,
      "Ġprepared": 6240,
      "Ġstomach": 6241,
      "Ġsleeve": 6242,
      "Ġintentions": 6243,
      "Eight": 6244,
      "IS": 6245,
      "Seen": 6246,
      "iac": 6247,
      "ĠWhite": 6248,
      "Ġsides": 6249,
      "Ġcode": 6250,
      "Ġoper": 6251,
      "Ġthreat": 6252,
      "Ġef": 6253,
      "Ġraz": 6254,
      "ura": 6255,
      "amor": 6256,
      "Ġnotes": 6257,
      "using": 6258,
      "Ġmaker": 6259,
      "Ġswag": 6260,
      "ĠCol": 6261,
      "ĠJane": 6262,
      "ooklyn": 6263,
      "Ġemb": 6264,
      "Ġhelps": 6265,
      "ĠĠĠ": 6266,
      "Ġjumpin": 6267,
      "Ġburnt": 6268,
      "Days": 6269,
      "itcase": 6270,
      "Ġcherry": 6271,
      "arbage": 6272,
      "Ġpowers": 6273,
      "Trou": 6274,
      "bie": 6275,
      "ĠWho": 6276,
      "Ġauth": 6277,
      "Ġsort": 6278,
      "Ġlap": 6279,
      "orts": 6280,
      "arma": 6281,
      "Ġpiano": 6282,
      "Ġrever": 6283,
      "ĠSatan": 6284,
      "ĠJud": 6285,
      "Ġuncle": 6286,
      "Ġroller": 6287,
      "Ġhatin": 6288,
      "Ġsurface": 6289,
      "uby": 6290,
      "Says": 6291,
      "Att": 6292,
      "strument": 6293,
      "Ġwhether": 6294,
      "Ġdeliver": 6295,
      "Ġpatience": 6296,
      "Ġbeef": 6297,
      "Ġglorious": 6298,
      "ĠBethlehem": 6299,
      "AL": 6300,
      "Ind": 6301,
      "Pack": 6302,
      "Poor": 6303,
      "ox": 6304,
      "uu": 6305,
      "ĠThey": 6306,
      "Ġbind": 6307,
      "Ġpad": 6308,
      "Ġpublic": 6309,
      "acket": 6310,
      "asion": 6311,
      "Ġships": 6312,
      "Ġblade": 6313,
      "Ġ(?)": 6314,
      "Ġspo": 6315,
      "Nowhere": 6316,
      "ĠLuc": 6317,
      "Ġhurtin": 6318,
      "appin": 6319,
      "lines": 6320,
      "ĠOld": 6321,
      "Anytime": 6322,
      "Ġuseless": 6323,
      "Closer": 6324,
      "mbers": 6325,
      "Ġtower": 6326,
      "ribe": 6327,
      "Fighting": 6328,
      "Ġlarge": 6329,
      "Okay": 6330,
      "Bew": 6331,
      "Col": 6332,
      "Cons": 6333,
      "Gather": 6334,
      "good": 6335,
      "say": 6336,
      "Ġcities": 6337,
      "itions": 6338,
      "era": 6339,
      "ata": 6340,
      "Ġrele": 6341,
      "Ġreel": 6342,
      "Ġsober": 6343,
      "Ġnoticed": 6344,
      "Ġbloss": 6345,
      "Ġgoodness": 6346,
      "Ġeyed": 6347,
      "Ġswagger": 6348,
      "Within": 6349,
      "ĠTuesday": 6350,
      "Ġunkind": 6351,
      "Ġhated": 6352,
      "Mean": 6353,
      "Ġhalfway": 6354,
      "Ġtorture": 6355,
      "Ġtenderly": 6356,
      "ĠMona": 6357,
      "Killing": 6358,
      "Ġdevotion": 6359,
      "Ġdepart": 6360,
      "Ġthangs": 6361,
      "Ġrappers": 6362,
      "Ġfrightened": 6363,
      "Ġpsycho": 6364,
      "Ġmaterial": 6365,
      "\".": 6366,
      "Fat": 6367,
      "Lie": 6368,
      "aah": 6369,
      "ding": 6370,
      "port": 6371,
      "Ġbark": 6372,
      "Ġfuss": 6373,
      "Ġgutter": 6374,
      "Ġgroup": 6375,
      "arly": 6376,
      "Ġpunch": 6377,
      "Ġrange": 6378,
      "idden": 6379,
      "Ġrear": 6380,
      "Ġann": 6381,
      "Ġfrustr": 6382,
      "Ġslap": 6383,
      "Ġvide": 6384,
      "Ġgrain": 6385,
      "ulation": 6386,
      "Ġchoo": 6387,
      "Ġchips": 6388,
      "ĠLight": 6389,
      "ĠBang": 6390,
      "Ġbrew": 6391,
      "ĠGot": 6392,
      "ĠPark": 6393,
      "ocr": 6394,
      "Ġkills": 6395,
      "Ġhelped": 6396,
      "Ġdial": 6397,
      "Ġlands": 6398,
      "uffle": 6399,
      "Shawty": 6400,
      "Ġcorners": 6401,
      "Ġcloudy": 6402,
      "Ġforgiven": 6403,
      "Ġobl": 6404,
      "Starting": 6405,
      "Ġneighbors": 6406,
      "Ġguarantee": 6407,
      "Ġribbons": 6408,
      "mission": 6409,
      "Ġsensation": 6410,
      "Ġshinin": 6411,
      "Ġphysical": 6412,
      "ichael": 6413,
      "Feed": 6414,
      "Great": 6415,
      "Huh": 6416,
      "Ill": 6417,
      "Oo": 6418,
      "Party": 6419,
      "Rad": 6420,
      "Treat": 6421,
      "fin": 6422,
      "gar": 6423,
      "talk": 6424,
      "Ġwink": 6425,
      "Ġlunch": 6426,
      "Ġdu": 6427,
      "iter": 6428,
      "Ġtoot": 6429,
      "Ġtops": 6430,
      "hattan": 6431,
      "Ġped": 6432,
      "Ġsting": 6433,
      "Ġweird": 6434,
      "Ġcann": 6435,
      "Ġnest": 6436,
      "Ġseeds": 6437,
      "Ġblond": 6438,
      "Ġbutton": 6439,
      "Ġspite": 6440,
      "Ġwaist": 6441,
      "Ġlighter": 6442,
      "ĠJapan": 6443,
      "ĠRiver": 6444,
      "Ġunhappy": 6445,
      "ĠChicago": 6446,
      "Almost": 6447,
      "Spring": 6448,
      "Ġscreamin": 6449,
      "Ġoceans": 6450,
      "Ġromantic": 6451,
      "Ġslept": 6452,
      "Ġcigarettes": 6453,
      "Ġjealousy": 6454,
      "ĠParis": 6455,
      "Ġfragile": 6456,
      "Ġchristmas": 6457,
      "Ġreckless": 6458,
      "El": 6459,
      "Ent": 6460,
      "je": 6461,
      "know": 6462,
      "nine": 6463,
      "Ġaye": 6464,
      "Ġavo": 6465,
      "Ġbah": 6466,
      "Ġole": 6467,
      "Ġpoll": 6468,
      "Ġbehold": 6469,
      "Ġhunt": 6470,
      "Ġjive": 6471,
      "Ġgoal": 6472,
      "Ġanti": 6473,
      "Ġbacks": 6474,
      "Ġbackwards": 6475,
      "okin": 6476,
      "itted": 6477,
      "ĠStr": 6478,
      "Ġstraw": 6479,
      "Everytime": 6480,
      "Ġsinger": 6481,
      "Ġsuitcase": 6482,
      "Ref": 6483,
      "esty": 6484,
      "Ġcheese": 6485,
      "Ġsleepless": 6486,
      "Ġclever": 6487,
      "Turned": 6488,
      "Ġspeaking": 6489,
      "Ġspinnin": 6490,
      "Ġcaptain": 6491,
      "Ġfailure": 6492,
      "Ġlosin": 6493,
      "Ġhomies": 6494,
      "ĠGrand": 6495,
      "Ġelev": 6496,
      "Add": 6497,
      "Bes": 6498,
      "aled": 6499,
      "po": 6500,
      "tains": 6501,
      "ĠChorus": 6502,
      "Ġtend": 6503,
      "Ġlun": 6504,
      "Ġchat": 6505,
      "Ġitself": 6506,
      "Ġlime": 6507,
      "ached": 6508,
      "Ġneeding": 6509,
      "Ġswe": 6510,
      "Ġusing": 6511,
      "Ġviv": 6512,
      "Ġorgan": 6513,
      "tage": 6514,
      "Ġscent": 6515,
      "Ġputtin": 6516,
      "rael": 6517,
      "Ġfav": 6518,
      "Ġsinner": 6519,
      "Ġtreats": 6520,
      "Ġache": 6521,
      "Ġmagn": 6522,
      "Ġcreate": 6523,
      "Ġwarmth": 6524,
      "Ġcandles": 6525,
      "Ġreminds": 6526,
      "Ġbowl": 6527,
      "atinum": 6528,
      "Ġprisoner": 6529,
      "jects": 6530,
      "Ġcondition": 6531,
      "Ġjewel": 6532,
      "Papa": 6533,
      "ĠSuper": 6534,
      "Lou": 6535,
      "off": 6536,
      "Ġ:": 6537,
      "Ġau": 6538,
      "Ġfasc": 6539,
      "Ġguts": 6540,
      "Ġpil": 6541,
      "Ġinch": 6542,
      "Ġracing": 6543,
      "Ġalib": 6544,
      "iginal": 6545,
      "Ġblur": 6546,
      "Ġrights": 6547,
      "Ġswept": 6548,
      "Ġsmilin": 6549,
      "ieves": 6550,
      "Ġskip": 6551,
      "Ġhates": 6552,
      "Ġdisaster": 6553,
      "Ġdisgr": 6554,
      "Ġlatest": 6555,
      "Ġthrills": 6556,
      "Ġappre": 6557,
      "Ġmarvel": 6558,
      "Ġcomplicated": 6559,
      "Ġballin": 6560,
      "Ġsilhou": 6561,
      "Ġcommun": 6562,
      "ĠFrank": 6563,
      "Ġsighs": 6564,
      "Darlin": 6565,
      "Ġvibe": 6566,
      "ĠGeorge": 6567,
      "Angels": 6568,
      "Ġtonk": 6569,
      "Ġgravity": 6570,
      "Ġpresident": 6571,
      "Ġeffect": 6572,
      "Met": 6573,
      "Pol": 6574,
      "Paint": 6575,
      "Ġdoom": 6576,
      "Ġgarbage": 6577,
      "Ġthump": 6578,
      "Ġthighs": 6579,
      "Ġep": 6580,
      "Ġevent": 6581,
      "Ġweb": 6582,
      "Ġsoot": 6583,
      "Ġbrush": 6584,
      "Ġbricks": 6585,
      "istic": 6586,
      "Whoo": 6587,
      "olute": 6588,
      "ĠSun": 6589,
      "oses": 6590,
      "ĠBeat": 6591,
      "ational": 6592,
      "bey": 6593,
      "ĠTw": 6594,
      "Ġcamera": 6595,
      "ĠNorth": 6596,
      "Ġmisunder": 6597,
      "Ġactin": 6598,
      "Ġhumming": 6599,
      "Ġthrowing": 6600,
      "ifteen": 6601,
      "Ġearn": 6602,
      "avid": 6603,
      "Ġcollide": 6604,
      "Ġcastle": 6605,
      "Ġpossess": 6606,
      "Ġbeliever": 6607,
      "Ġdirect": 6608,
      "Wondering": 6609,
      "Ġwhale": 6610,
      "whoa": 6611,
      "''": 6612,
      "call": 6613,
      "dee": 6614,
      "mar": 6615,
      "tw": 6616,
      "uine": 6617,
      "ĠUh": 6618,
      "Ġlace": 6619,
      "haha": 6620,
      "Ġdozen": 6621,
      "rous": 6622,
      "Ġoutl": 6623,
      "Ġcradle": 6624,
      "Ġslight": 6625,
      "Ġshoulda": 6626,
      "Ġpartner": 6627,
      "Ġcarpet": 6628,
      "Ġdeepest": 6629,
      "Ġpulls": 6630,
      "Trave": 6631,
      "Understand": 6632,
      "Happiness": 6633,
      "Ġwoods": 6634,
      "ackson": 6635,
      "Buy": 6636,
      "Ġdefeat": 6637,
      "Laughing": 6638,
      "Ġtables": 6639,
      "Men": 6640,
      "OW": 6641,
      "Wash": 6642,
      "mind": 6643,
      "made": 6644,
      "pie": 6645,
      "Ġmal": 6646,
      "ann": 6647,
      "Ġopin": 6648,
      "Ġhush": 6649,
      "Ġripped": 6650,
      "Ġkneel": 6651,
      "Ġdoc": 6652,
      "iment": 6653,
      "Ġnoon": 6654,
      "Ġmansion": 6655,
      "Ġroar": 6656,
      "ĠSnow": 6657,
      "osh": 6658,
      "icky": 6659,
      "Ġslang": 6660,
      "Ġvoy": 6661,
      "Ġgrade": 6662,
      "ĠLife": 6663,
      "Ġwarn": 6664,
      "quest": 6665,
      "Ġshallow": 6666,
      "Ġrides": 6667,
      "Ġkicking": 6668,
      "Ġfootsteps": 6669,
      "ĠMaria": 6670,
      "roadway": 6671,
      "Ġviolent": 6672,
      "Ġastray": 6673,
      "AS": 6674,
      "Cur": 6675,
      "Evil": 6676,
      "OT": 6677,
      "nch": 6678,
      "tles": 6679,
      "ini": 6680,
      "Ġsaints": 6681,
      "Ġfab": 6682,
      "inger": 6683,
      "Ġopt": 6684,
      "Ġecstasy": 6685,
      "omp": 6686,
      "Ġnecess": 6687,
      "ilos": 6688,
      "oved": 6689,
      "Ġpriest": 6690,
      "Ġshack": 6691,
      "ĠAs": 6692,
      "Ġhoped": 6693,
      "Reaching": 6694,
      "awai": 6695,
      "Ġwins": 6696,
      "Ġlaughs": 6697,
      "load": 6698,
      "Ġcharge": 6699,
      "Ġkickin": 6700,
      "ception": 6701,
      "Ġcouch": 6702,
      "Ġcracks": 6703,
      "ĠSpirit": 6704,
      "Ġcasket": 6705,
      "Ġpsych": 6706,
      "ĠAtl": 6707,
      "America": 6708,
      "Secret": 6709,
      "Empty": 6710,
      "Cast": 6711,
      "Es": 6712,
      "Lad": 6713,
      "Sister": 6714,
      "ez": 6715,
      "Ġsau": 6716,
      "Ġpole": 6717,
      "Ġhee": 6718,
      "Ġhump": 6719,
      "child": 6720,
      "Ġovercome": 6721,
      "iggle": 6722,
      "orning": 6723,
      "Ġunderw": 6724,
      "Ġunderstands": 6725,
      "Ġdecl": 6726,
      "Ġzoo": 6727,
      "Ġrises": 6728,
      "Ġhalls": 6729,
      "Ġcourt": 6730,
      "!!!!": 6731,
      "Ġlaws": 6732,
      "Ġfreaky": 6733,
      "________": 6734,
      "Ġremem": 6735,
      "30": 6736,
      "Bless": 6737,
      "Hung": 6738,
      "Ret": 6739,
      "Vo": 6740,
      "Ġsab": 6741,
      "Ġbom": 6742,
      "Ġoooh": 6743,
      "eteen": 6744,
      "ashes": 6745,
      "icult": 6746,
      "Ġrevol": 6747,
      "arte": 6748,
      "uring": 6749,
      "ells": 6750,
      "Ġalien": 6751,
      "Ġsails": 6752,
      "Ġspeech": 6753,
      "rything": 6754,
      "ĠBa": 6755,
      "Ġplaya": 6756,
      "Ġbugg": 6757,
      "Ġtreated": 6758,
      "Ġboats": 6759,
      "Ġmessin": 6760,
      "Ġeduc": 6761,
      "Ġobvious": 6762,
      "Ġselling": 6763,
      "Ġchained": 6764,
      "Contr": 6765,
      "Ġinformation": 6766,
      "Ġcentury": 6767,
      "Ġinsec": 6768,
      "Ġdeaf": 6769,
      "Ġchimney": 6770,
      "Ġfits": 6771,
      "Ġinvent": 6772,
      "Ġsteam": 6773,
      "indr": 6774,
      "Ġgotten": 6775,
      "Ġneither": 6776,
      "imm": 6777,
      "Ġcrave": 6778,
      "Ġprinc": 6779,
      "Ġlawn": 6780,
      "Ġcarries": 6781,
      "Ġdais": 6782,
      "Ġblackbird": 6783,
      "Ġvoid": 6784,
      "Ġsincere": 6785,
      "Shall": 6786,
      "Ġteardrops": 6787,
      "from": 6788,
      "Ġcolour": 6789,
      "olene": 6790,
      "agging": 6791,
      "Sex": 6792,
      "Ġgrabbed": 6793,
      "Ġdaba": 6794,
      "Ġsnap": 6795,
      "ĠIndian": 6796,
      "Ġsatellite": 6797,
      "Ġdisgrace": 6798,
      "CK": 6799,
      "Fast": 6800,
      "Jack": 6801,
      "bits": 6802,
      "gment": 6803,
      "hoo": 6804,
      "lers": 6805,
      "lude": 6806,
      "val": 6807,
      "wa": 6808,
      "Ġsed": 6809,
      "Ġtheme": 6810,
      "Ġfie": 6811,
      "Ġtoll": 6812,
      "anes": 6813,
      "Ġport": 6814,
      "Ġthumb": 6815,
      "Ġhabit": 6816,
      "Ġsociety": 6817,
      "ophy": 6818,
      "imps": 6819,
      "Ġagony": 6820,
      "Ġrighteous": 6821,
      "olina": 6822,
      "Ġwaan": 6823,
      "ĠBet": 6824,
      "Ġmob": 6825,
      "ĠAvenue": 6826,
      "Best": 6827,
      "Ġarise": 6828,
      "ĠFre": 6829,
      "Ġfights": 6830,
      "Ġdescend": 6831,
      "Ġredee": 6832,
      "Ġfellow": 6833,
      "Ġspending": 6834,
      "Ġthankful": 6835,
      "Ġdreamers": 6836,
      "Ġbounc": 6837,
      "Ġpounds": 6838,
      "Ġvisions": 6839,
      "Ġfilth": 6840,
      "Ġlipstick": 6841,
      "Ġsumthin": 6842,
      "Screaming": 6843,
      "Ġtotal": 6844,
      "Ġluv": 6845,
      "Remind": 6846,
      "Ġconcerned": 6847,
      "Ġpraises": 6848,
      "Ġcousin": 6849,
      "Ġcollege": 6850,
      "AY": 6851,
      "Disc": 6852,
      "Early": 6853,
      "Gun": 6854,
      "Joy": 6855,
      "long": 6856,
      "Ġmaze": 6857,
      "Ġfuel": 6858,
      "Ġcave": 6859,
      "Ġnea": 6860,
      "Ġpatter": 6861,
      "Ġhides": 6862,
      "eter": 6863,
      "Ġdong": 6864,
      "Ġalthough": 6865,
      "ima": 6866,
      "ĠME": 6867,
      "Ġvag": 6868,
      "Ġdreamt": 6869,
      "Ġscience": 6870,
      "ĠTe": 6871,
      "ĠRoc": 6872,
      "Ġnail": 6873,
      "Seem": 6874,
      "Ġ[?]": 6875,
      "Upon": 6876,
      "Ġcollar": 6877,
      "Ġbooze": 6878,
      "Ġdestination": 6879,
      "Ġriches": 6880,
      "ĠEngland": 6881,
      "Ġcontinue": 6882,
      "Ġvillage": 6883,
      "Ġvibr": 6884,
      "10": 6885,
      "Ho": 6886,
      "Hea": 6887,
      "Higher": 6888,
      "four": 6889,
      "rish": 6890,
      "Ġtips": 6891,
      "Ġsow": 6892,
      "Ġsippin": 6893,
      "nds": 6894,
      "Ġdash": 6895,
      "Ġdwell": 6896,
      "Ġgifts": 6897,
      "anct": 6898,
      "Ġpuzz": 6899,
      "Ġhouses": 6900,
      "Ġka": 6901,
      "ators": 6902,
      "utti": 6903,
      "indeer": 6904,
      "chu": 6905,
      "aman": 6906,
      "Ġsew": 6907,
      "ĠJo": 6908,
      "Ġfightin": 6909,
      "Ġtech": 6910,
      "ĠEve": 6911,
      "Ġstarlight": 6912,
      "Ġsummertime": 6913,
      "Thanks": 6914,
      "Grand": 6915,
      "Ġwhispering": 6916,
      "Ġenter": 6917,
      "ĠIsrael": 6918,
      "Ġintern": 6919,
      "Ġweeping": 6920,
      "Ġrapper": 6921,
      "ĠEmily": 6922,
      ".'": 6923,
      "Pump": 6924,
      "Squ": 6925,
      "World": 6926,
      "bet": 6927,
      "burn": 6928,
      "lie": 6929,
      "rors": 6930,
      "Ġbid": 6931,
      "oria": 6932,
      "Ġbeams": 6933,
      "Ġbeware": 6934,
      "Ġum": 6935,
      "icing": 6936,
      "Ġreaction": 6937,
      "ieving": 6938,
      "Ġblunt": 6939,
      "Ġplant": 6940,
      "Ġflashing": 6941,
      "Ġhomes": 6942,
      "ĠBay": 6943,
      "ĠBack": 6944,
      "ĠBroadway": 6945,
      "Ġconquer": 6946,
      "ĠJim": 6947,
      "Ġpainting": 6948,
      "Ġmovement": 6949,
      "Ġpaying": 6950,
      "Ġappears": 6951,
      "Ġmarching": 6952,
      "front": 6953,
      "Ġperfectly": 6954,
      "Ġtension": 6955,
      "Ġwished": 6956,
      "ĠBrooklyn": 6957,
      "Ġrelation": 6958,
      "Ġdusty": 6959,
      "Bringing": 6960,
      "hearted": 6961,
      "Ġinfin": 6962,
      "Ġfifth": 6963,
      "Ġfarewell": 6964,
      "Ġinterest": 6965,
      "Afraid": 6966,
      "Ball": 6967,
      "aire": 6968,
      "bea": 6969,
      "foot": 6970,
      "pes": 6971,
      "then": 6972,
      "Ġbush": 6973,
      "Ġbees": 6974,
      "Ġdues": 6975,
      "Ġfaint": 6976,
      "Ġflex": 6977,
      "Ġpi": 6978,
      "stit": 6979,
      "Ġrang": 6980,
      "Ġsty": 6981,
      "Ġstir": 6982,
      "Ġneva": 6983,
      "Ġshield": 6984,
      "Ġmankind": 6985,
      "Ġdece": 6986,
      "Ġneedle": 6987,
      "Ġbreast": 6988,
      "three": 6989,
      "ĠGu": 6990,
      "ĠPres": 6991,
      "Ġqui": 6992,
      "Ġbeggin": 6993,
      "ĠNe": 6994,
      "ĠNight": 6995,
      "ĠKe": 6996,
      "Quiet": 6997,
      "Ġwandering": 6998,
      "Ġsuggest": 6999,
      "Lovin": 7000,
      "Ġshopping": 7001,
      "Ġmarks": 7002,
      "Against": 7003,
      "Ġcreatures": 7004,
      "nesday": 7005,
      "Ġdifficult": 7006,
      "Trouble": 7007,
      "Cre": 7008,
      "Mid": 7009,
      "Mel": 7010,
      "ND": 7011,
      "Psy": 7012,
      "Sign": 7013,
      "Tu": 7014,
      "Use": 7015,
      "damn": 7016,
      "iour": 7017,
      "Ġtame": 7018,
      "Ġak": 7019,
      "Ġahh": 7020,
      "Ġwob": 7021,
      "reme": 7022,
      "Ġdup": 7023,
      "Ġfuse": 7024,
      "Ġpag": 7025,
      "Ġpardon": 7026,
      "Ġbeam": 7027,
      "Ġdrummer": 7028,
      "ĠMusic": 7029,
      "Ġstruck": 7030,
      "ĠDol": 7031,
      "Ġbits": 7032,
      "Ġfuneral": 7033,
      "ippy": 7034,
      "Ġstarry": 7035,
      "umblin": 7036,
      "Speed": 7037,
      "prints": 7038,
      "Ġshotgun": 7039,
      "Ġcloset": 7040,
      "Ġlessons": 7041,
      "Ġeatin": 7042,
      "Wanting": 7043,
      "Flow": 7044,
      "Daylight": 7045,
      "Workin": 7046,
      "Ġhorns": 7047,
      "Ġpupp": 7048,
      "ĠAhoy": 7049,
      "Ġgathered": 7050,
      "Ġapologize": 7051,
      "Ġcriminal": 7052,
      "Ġsymphony": 7053,
      "Ġcompromise": 7054,
      "Ġauthority": 7055,
      "Ġmarvelous": 7056,
      "Mis": 7057,
      "Soul": 7058,
      "Takin": 7059,
      "gl": 7060,
      "nic": 7061,
      "vis": 7062,
      "Ġdigging": 7063,
      "ottle": 7064,
      "atched": 7065,
      "Ġrude": 7066,
      "Ġknowin": 7067,
      "icip": 7068,
      "Ġupset": 7069,
      "chi": 7070,
      "Ġtrump": 7071,
      "Ġwhatcha": 7072,
      "usions": 7073,
      "Ġcrooked": 7074,
      "Ġplaced": 7075,
      "Ġabuse": 7076,
      "Ġvoc": 7077,
      "ĠJord": 7078,
      "Ġdecay": 7079,
      "mpre": 7080,
      "????": 7081,
      "****": 7082,
      "Ġsolitude": 7083,
      "Ġfolk": 7084,
      "drop": 7085,
      "ĠBeach": 7086,
      "Ġanimals": 7087,
      "Ġpavement": 7088,
      "Ġmajor": 7089,
      "Ġdawning": 7090,
      "Ġodds": 7091,
      "Hmm": 7092,
      "Sick": 7093,
      "Ġsouthern": 7094,
      "rend": 7095,
      "Ġble": 7096,
      "Ġdull": 7097,
      "Ġfart": 7098,
      "Ġnicke": 7099,
      "Ġpile": 7100,
      "style": 7101,
      "Ġramb": 7102,
      "Ġhail": 7103,
      "Ġumb": 7104,
      "Ġreindeer": 7105,
      "Ġcrap": 7106,
      "inkle": 7107,
      "ummy": 7108,
      "Ġmans": 7109,
      "Ġeverytime": 7110,
      "Ġspider": 7111,
      "ĠMister": 7112,
      "Ġgrill": 7113,
      "ulate": 7114,
      "Ġsmack": 7115,
      "Ġplayers": 7116,
      "Ġsund": 7117,
      "ĠRight": 7118,
      "ĠRuss": 7119,
      "Ġexistence": 7120,
      "ĠPap": 7121,
      "Ġunwind": 7122,
      "ĠNa": 7123,
      "ĠKnow": 7124,
      "Ġlaughin": 7125,
      "Ġshakes": 7126,
      "Times": 7127,
      "Ġconfidence": 7128,
      "Ġradar": 7129,
      "Ġrelief": 7130,
      "Ġchoices": 7131,
      "Haven": 7132,
      "Ġterrif": 7133,
      "Ġlawy": 7134,
      "ĠMarie": 7135,
      "Ġtelev": 7136,
      "Ġhooked": 7137,
      "Ġwounded": 7138,
      "Ġsurrounded": 7139,
      "joice": 7140,
      "Ġrooms": 7141,
      "Ġvacation": 7142,
      "Ġprepare": 7143,
      "Ġscenes": 7144,
      "AH": 7145,
      "Den": 7146,
      "Fate": 7147,
      "Lies": 7148,
      "Locked": 7149,
      "Por": 7150,
      "SE": 7151,
      "rase": 7152,
      "Ġfond": 7153,
      "Ġcong": 7154,
      "Ġgar": 7155,
      "Ġforced": 7156,
      "Ġree": 7157,
      "Ġrewind": 7158,
      "Ġjerk": 7159,
      "ences": 7160,
      "uru": 7161,
      "anded": 7162,
      "Ġate": 7163,
      "Ġshepher": 7164,
      "Ġclip": 7165,
      "ĠSaint": 7166,
      "Ġskull": 7167,
      "anged": 7168,
      "ĠHall": 7169,
      "ĠTom": 7170,
      "Ġchap": 7171,
      "ĠFree": 7172,
      "ancin": 7173,
      "Ġimm": 7174,
      "Ġappl": 7175,
      "Ġcolored": 7176,
      "Ġplea": 7177,
      "ĠCloser": 7178,
      "fety": 7179,
      "Chasing": 7180,
      "Ġyeh": 7181,
      "Ġfox": 7182,
      "Ġsoup": 7183,
      "Ġindepend": 7184,
      "Ang": 7185,
      "Ce": 7186,
      "Honest": 7187,
      "Ice": 7188,
      "Mine": 7189,
      "Po": 7190,
      "Rum": 7191,
      "Rose": 7192,
      "Saturday": 7193,
      "bows": 7194,
      "cribe": 7195,
      "gone": 7196,
      "make": 7197,
      "two": 7198,
      "Ġske": 7199,
      "Ġfoll": 7200,
      "Ġcamp": 7201,
      "Ġmeal": 7202,
      "Ġpout": 7203,
      "ott": 7204,
      "oted": 7205,
      "Ġsticks": 7206,
      "asing": 7207,
      "iche": 7208,
      ".....": 7209,
      "arer": 7210,
      "Ġprince": 7211,
      "olt": 7212,
      "Ġgrief": 7213,
      "apt": 7214,
      "bert": 7215,
      "ĠJackson": 7216,
      "Ġenchant": 7217,
      "Ġevenin": 7218,
      "Ġunw": 7219,
      "Ġprey": 7220,
      "ĠThee": 7221,
      "Ġcurtains": 7222,
      "Smile": 7223,
      "Lights": 7224,
      "Ġaccount": 7225,
      "Ġconstantly": 7226,
      "Ġintrod": 7227,
      "Ġtemperature": 7228,
      "indrops": 7229,
      "Cal": 7230,
      "Eh": 7231,
      "Ele": 7232,
      "Past": 7233,
      "Safe": 7234,
      "bush": 7235,
      "turn": 7236,
      "inah": 7237,
      "Ġmast": 7238,
      "Ġcuz": 7239,
      "Ġpred": 7240,
      "stance": 7241,
      "step": 7242,
      "Ġrearr": 7243,
      "Ġsole": 7244,
      "ĠMad": 7245,
      "Ġusually": 7246,
      "Ġvirgin": 7247,
      "Ġwaving": 7248,
      "ĠGucci": 7249,
      "ĠCind": 7250,
      "Ġscary": 7251,
      "Ġscrap": 7252,
      "ĠDave": 7253,
      "Ġglock": 7254,
      "Reg": 7255,
      "Ġtremble": 7256,
      "Ġsecurity": 7257,
      "Along": 7258,
      "Anywhere": 7259,
      "Ġbarrel": 7260,
      "Ġregga": 7261,
      "Dec": 7262,
      "Ġaddicted": 7263,
      "Ġsurrounds": 7264,
      "Ġswallowed": 7265,
      "Lovers": 7266,
      "ĠUncle": 7267,
      "Ġblanket": 7268,
      "Ġvideo": 7269,
      "Ġappreci": 7270,
      "City": 7271,
      "Har": 7272,
      "Simp": 7273,
      "aur": 7274,
      "obe": 7275,
      "umed": 7276,
      "vail": 7277,
      "ĠNot": 7278,
      "Ġavenue": 7279,
      "Ġsanity": 7280,
      "Ġwoe": 7281,
      "Ġwoof": 7282,
      "Ġcope": 7283,
      "ito": 7284,
      "orse": 7285,
      "eek": 7286,
      "arah": 7287,
      "Ġhittin": 7288,
      "uest": 7289,
      "ĠSally": 7290,
      "ĠLamb": 7291,
      "ently": 7292,
      "ĠAre": 7293,
      "Ġcheatin": 7294,
      "Ġhater": 7295,
      "Ġwonderland": 7296,
      "Ġmeeting": 7297,
      "Waitin": 7298,
      "Fallin": 7299,
      "Ġtraveled": 7300,
      "Ġcreeping": 7301,
      "Hearts": 7302,
      "Ġmodel": 7303,
      "Ġboring": 7304,
      "Ġdesperation": 7305,
      "Ġfilm": 7306,
      "Ġreplace": 7307,
      "ĠLouisiana": 7308,
      "Ġthorns": 7309,
      "Ġexperience": 7310,
      "Ġflavor": 7311,
      "strumental": 7312,
      "Ġremembered": 7313,
      "Either": 7314,
      "Rap": 7315,
      "Wrap": 7316,
      "laka": 7317,
      "Ġach": 7318,
      "reamed": 7319,
      "Ġbi": 7320,
      "hall": 7321,
      "Ġgi": 7322,
      "Ġpony": 7323,
      "erm": 7324,
      "Ġemer": 7325,
      "ednesday": 7326,
      "Ġplatinum": 7327,
      "ĠMom": 7328,
      "ucka": 7329,
      "Ġusual": 7330,
      "ĠHill": 7331,
      "Ġsuits": 7332,
      "ĠRoad": 7333,
      "rapped": 7334,
      "Ġdisrespect": 7335,
      "Ġfoolin": 7336,
      "Ġseconds": 7337,
      "Ġmerc": 7338,
      "Ġballoon": 7339,
      "Ġcrowds": 7340,
      "Ġsurviv": 7341,
      "Ġmax": 7342,
      "Ġprotection": 7343,
      "Ġeager": 7344,
      "Ġpanic": 7345,
      "Ġweapons": 7346,
      "Ġstretch": 7347,
      "Ġninety": 7348,
      "Ġservice": 7349,
      "ifferent": 7350,
      "Ġreggae": 7351,
      "Bow": 7352,
      "Hail": 7353,
      "Lil": 7354,
      "Song": 7355,
      "iah": 7356,
      "pare": 7357,
      "tled": 7358,
      "zed": 7359,
      "Ġaud": 7360,
      "Ġmold": 7361,
      "Ġlin": 7362,
      "Ġfaced": 7363,
      "Ġgamble": 7364,
      "Ġpipe": 7365,
      "acker": 7366,
      "Ġjazz": 7367,
      "imed": 7368,
      "Ġtragic": 7369,
      "ample": 7370,
      "Ġfeeds": 7371,
      "Ġdried": 7372,
      "ĠMac": 7373,
      "Ġvine": 7374,
      "Ġorange": 7375,
      "Ġchills": 7376,
      "aph": 7377,
      "ĠDan": 7378,
      "thern": 7379,
      "izes": 7380,
      "Friends": 7381,
      "Ġbringin": 7382,
      "Ġwarned": 7383,
      "Ġwishin": 7384,
      "Ġbothered": 7385,
      "Ġforgetting": 7386,
      "Ġlayin": 7387,
      "Ġpays": 7388,
      "Ġjumping": 7389,
      "Ġdisappeared": 7390,
      "ĠThy": 7391,
      "Ġintell": 7392,
      "Ġpersonal": 7393,
      "Ġcelebration": 7394,
      "Ġborrowed": 7395,
      "Ġmuscle": 7396,
      "Beware": 7397,
      "App": 7398,
      "Ass": 7399,
      "Bo": 7400,
      "Fell": 7401,
      "Pur": 7402,
      "Tie": 7403,
      "ais": 7404,
      "bor": 7405,
      "dam": 7406,
      "sm": 7407,
      "van": 7408,
      "zes": 7409,
      "Ġsaint": 7410,
      "Ġwack": 7411,
      "Ġfountain": 7412,
      "Ġfifteen": 7413,
      "Ġgall": 7414,
      "Ġheed": 7415,
      "Ġmyster": 7416,
      "etition": 7417,
      "Ġrequest": 7418,
      "hers": 7419,
      "Ġclover": 7420,
      "venir": 7421,
      "ĠMars": 7422,
      "ĠMoon": 7423,
      "Ġoverd": 7424,
      "ĠLy": 7425,
      "ĠLand": 7426,
      "ĠBird": 7427,
      "iggin": 7428,
      "Ġleap": 7429,
      "Ġwrath": 7430,
      "ĠJesse": 7431,
      "ilda": 7432,
      "ĠDel": 7433,
      "ĠDavid": 7434,
      "ĠHi": 7435,
      "ĠHen": 7436,
      "ĠRob": 7437,
      "Gets": 7438,
      "Ġhelping": 7439,
      "Ġchildhood": 7440,
      "Ġsinners": 7441,
      "Ġmothers": 7442,
      "Ġ40": 7443,
      "Ġdelay": 7444,
      "ology": 7445,
      "American": 7446,
      "Ġattract": 7447,
      "whel": 7448,
      "Ġtrembling": 7449,
      "Ġcredit": 7450,
      "Ġmisunderstood": 7451,
      "Ġdeclare": 7452,
      "AD": 7453,
      "Hy": 7454,
      "Mot": 7455,
      "Nin": 7456,
      "Nice": 7457,
      "Sy": 7458,
      "Sal": 7459,
      "Sent": 7460,
      "ek": 7461,
      "hip": 7462,
      "ih": 7463,
      "Ġtangled": 7464,
      "Ġmult": 7465,
      "Ġdudes": 7466,
      "ĠIll": 7467,
      "Ġmem": 7468,
      "Ġmere": 7469,
      "Ġinfl": 7470,
      "Ġuhh": 7471,
      "adu": 7472,
      "Ġrely": 7473,
      "ency": 7474,
      "Ġseein": 7475,
      "Ġouter": 7476,
      "Ġwhoo": 7477,
      "Ġfron": 7478,
      "anda": 7479,
      "ĠMid": 7480,
      "ĠMike": 7481,
      "Ġflu": 7482,
      "Somethin": 7483,
      "ĠGl": 7484,
      "Ġconv": 7485,
      "ĠCool": 7486,
      "Ġoffice": 7487,
      "angar": 7488,
      "ĠHot": 7489,
      "ĠEd": 7490,
      "Ġaskin": 7491,
      "Ġgrowin": 7492,
      "Swim": 7493,
      "ĠHeart": 7494,
      "Ġplead": 7495,
      "rics": 7496,
      "Ġglasses": 7497,
      "Ġsolution": 7498,
      "ĠFrance": 7499,
      "Ġclimbing": 7500,
      "Ġsubway": 7501,
      "ĠUS": 7502,
      "Ġdefense": 7503,
      "Ġautomatic": 7504,
      "Ġholla": 7505,
      "Ġclowns": 7506,
      "Ġstrikes": 7507,
      "ĠHarlem": 7508,
      "Ġrodeo": 7509,
      "Ġmamma": 7510,
      "Dressed": 7511,
      "Pra": 7512,
      "Pro": 7513,
      "nies": 7514,
      "sive": 7515,
      "inate": 7516,
      "Ġsher": 7517,
      "Ġci": 7518,
      "Ġcau": 7519,
      "Ġnarrow": 7520,
      "Ġmes": 7521,
      "Ġova": 7522,
      "Ġpoke": 7523,
      "Ġhun": 7524,
      "uty": 7525,
      "Ġjar": 7526,
      "elle": 7527,
      "Ġshoo": 7528,
      "ami": 7529,
      "Ġspaces": 7530,
      "Ġslips": 7531,
      "ĠBo": 7532,
      "ĠBre": 7533,
      "ĠGold": 7534,
      "Ġexit": 7535,
      "ĠPop": 7536,
      "Rec": 7537,
      "mort": 7538,
      "Ġfails": 7539,
      "Shot": 7540,
      "Ġapartment": 7541,
      "Ġparano": 7542,
      "Ġcompass": 7543,
      "Intro": 7544,
      "Ġsticky": 7545,
      "Boys": 7546,
      "Ġcaptured": 7547,
      "Ġfreaks": 7548,
      "Ġsuffoc": 7549,
      "belie": 7550,
      "Embr": 7551,
      "Ġrattle": 7552,
      "Momma": 7553,
      "Ġthirsty": 7554,
      "Ġbetrayed": 7555,
      "Ġgoddamn": 7556,
      "Ġrazor": 7557,
      "Ladies": 7558,
      "Candy": 7559,
      "Dist": 7560,
      "Hum": 7561,
      "II": 7562,
      "eight": 7563,
      "iate": 7564,
      "may": 7565,
      "Ġmac": 7566,
      "llen": 7567,
      "itary": 7568,
      "Ġthieves": 7569,
      "Ġloyal": 7570,
      "ido": 7571,
      "Ġsoar": 7572,
      "Ġups": 7573,
      "Ġroyal": 7574,
      "ĠSad": 7575,
      "Ġlongest": 7576,
      "Ġslay": 7577,
      "ĠBone": 7578,
      "Street": 7579,
      "ĠDre": 7580,
      "Ġfriendship": 7581,
      "Doin": 7582,
      "redible": 7583,
      "oca": 7584,
      "plete": 7585,
      "Ġdescribe": 7586,
      "ixie": 7587,
      "Ġdarker": 7588,
      "Ġbrightly": 7589,
      "Ġappet": 7590,
      "unky": 7591,
      "Ġimpr": 7592,
      "Ġbands": 7593,
      "Ġladder": 7594,
      "Ġdisappoint": 7595,
      "!!!": 7596,
      "Ġpersu": 7597,
      "Ġmachines": 7598,
      "Ġsailor": 7599,
      "Ġdimes": 7600,
      "ĠLouie": 7601,
      "Desp": 7602,
      "Ġresistance": 7603,
      "Ġfists": 7604,
      "Ġcherish": 7605,
      "Ġrotten": 7606,
      "Ġbasement": 7607,
      "Ġtasted": 7608,
      "Ġribbon": 7609,
      "Ġabsolute": 7610,
      "Ġbathroom": 7611,
      "Ġbehave": 7612,
      "Shadows": 7613,
      "Ġgambler": 7614,
      "Ġsilhouette": 7615,
      "Ġopinion": 7616,
      "ĠJordan": 7617,
      "Double": 7618,
      "Non": 7619,
      "Suff": 7620,
      "Wrapped": 7621,
      "bur": 7622,
      "ded": 7623,
      "gent": 7624,
      "ius": 7625,
      "lier": 7626,
      "view": 7627,
      "west": 7628,
      "ĠOoh": 7629,
      "inct": 7630,
      "Ġyow": 7631,
      "Ġfans": 7632,
      "Ġfirm": 7633,
      "Ġcart": 7634,
      "Ġculture": 7635,
      "itched": 7636,
      "Ġgown": 7637,
      "Ġtoil": 7638,
      "met": 7639,
      "Ġkin": 7640,
      "atilda": 7641,
      "Ġrushing": 7642,
      "aba": 7643,
      "auw": 7644,
      "Ġash": 7645,
      "Ohhh": 7646,
      "Ġagg": 7647,
      "ĠMart": 7648,
      "oliday": 7649,
      "ĠSee": 7650,
      "osc": 7651,
      "elu": 7652,
      "Ġsmoked": 7653,
      "ĠHer": 7654,
      "Ġhating": 7655,
      "ĠNick": 7656,
      "Ġadm": 7657,
      "Ġleaders": 7658,
      "iero": 7659,
      "irteen": 7660,
      "Ġexplod": 7661,
      "Prom": 7662,
      "Ġcircum": 7663,
      "Ġsentence": 7664,
      "Ġsixty": 7665,
      "volved": 7666,
      "Ġdraws": 7667,
      "Started": 7668,
      "Ġpounding": 7669,
      "Ġpositive": 7670,
      "Ġmiracles": 7671,
      "Ġbucks": 7672,
      "ĠDoctor": 7673,
      "Ġhaunted": 7674,
      "Ġtastes": 7675,
      "Ġjewels": 7676,
      "ĠEnglish": 7677,
      "osphere": 7678,
      "Ġcritic": 7679,
      "Ġroutine": 7680,
      "omerang": 7681,
      "Aut": 7682,
      "Eat": 7683,
      "Mer": 7684,
      "Ple": 7685,
      "ji": 7686,
      "wait": 7687,
      "Ġou": 7688,
      "Ġai": 7689,
      "Ġwagon": 7690,
      "Ġfeast": 7691,
      "Ġmeow": 7692,
      "Ġpier": 7693,
      "Ġpissed": 7694,
      "stream": 7695,
      "state": 7696,
      "seng": 7697,
      "assed": 7698,
      "Ġjacket": 7699,
      "Ġuptown": 7700,
      "Ġshift": 7701,
      "Ġsafety": 7702,
      "Ġdeck": 7703,
      "ĠMel": 7704,
      "uckle": 7705,
      "Ġflown": 7706,
      "Ġvirt": 7707,
      "ĠBobby": 7708,
      "entucky": 7709,
      "ounty": 7710,
      "Ġbadly": 7711,
      "Ġbug": 7712,
      "Ġbluebirds": 7713,
      "ffy": 7714,
      "ĠFrench": 7715,
      "Ġcounty": 7716,
      "ĠVirgin": 7717,
      "Ġreturning": 7718,
      "Ġblocks": 7719,
      "Ġwatches": 7720,
      "Ġbusted": 7721,
      "Ġcrimes": 7722,
      "Ġhype": 7723,
      "Ġeighteen": 7724,
      "believe": 7725,
      "Ġprophe": 7726,
      "Ġhustler": 7727,
      "ĠBabylon": 7728,
      "Movin": 7729,
      "Ġpimpin": 7730,
      "Ġscrewed": 7731,
      "Ġsusp": 7732,
      "Sounds": 7733,
      "Deliver": 7734,
      "Ġideas": 7735,
      "Bury": 7736,
      "Losing": 7737,
      "Part": 7738,
      "Wit": 7739,
      "iar": 7740,
      "keep": 7741,
      "moon": 7742,
      "nn": 7743,
      "py": 7744,
      "tight": 7745,
      "Ġtit": 7746,
      "Ġtank": 7747,
      "Ġsom": 7748,
      "Ġsim": 7749,
      "Ġdaze": 7750,
      "Ġfiddle": 7751,
      "Ġcease": 7752,
      "Ġtod": 7753,
      "Ġrack": 7754,
      "Ġwhom": 7755,
      "Ġnotion": 7756,
      "ussy": 7757,
      "ilee": 7758,
      "Ġsailed": 7759,
      "Ġspoon": 7760,
      "isticated": 7761,
      "Ġroots": 7762,
      "Ġthroughout": 7763,
      "Ġchocolate": 7764,
      "Ġamazed": 7765,
      "ĠLo": 7766,
      "Ġconce": 7767,
      "Ġoffic": 7768,
      "ĠHigh": 7769,
      "Ġbreakdown": 7770,
      "Ġhopin": 7771,
      "Ġclosely": 7772,
      "Ġdeadly": 7773,
      "Ġclearer": 7774,
      "Ġfreight": 7775,
      "Ġphilos": 7776,
      "Ġmirrors": 7777,
      "Ġpickin": 7778,
      "Small": 7779,
      "byes": 7780,
      "Freak": 7781,
      "Ġjudgment": 7782,
      "March": 7783,
      "Ġaccident": 7784,
      "Ġraging": 7785,
      "Ġtotally": 7786,
      "Respect": 7787,
      "Diamonds": 7788,
      "Dumb": 7789,
      "East": 7790,
      "Gang": 7791,
      "Hoo": 7792,
      "Loose": 7793,
      "Mm": 7794,
      "Mister": 7795,
      "South": 7796,
      "UT": 7797,
      "Und": 7798,
      "fit": 7799,
      "ki": 7800,
      "mi": 7801,
      "want": 7802,
      "ĠYes": 7803,
      "Ġax": 7804,
      "Ġwaltz": 7805,
      "Ġmash": 7806,
      "Ġbond": 7807,
      "Ġbung": 7808,
      "Ġbale": 7809,
      "Ġdump": 7810,
      "Ġny": 7811,
      "Ġbeds": 7812,
      "Ġlob": 7813,
      "Ġhalo": 7814,
      "ases": 7815,
      "urd": 7816,
      "ander": 7817,
      "Ġabo": 7818,
      "rybody": 7819,
      "Myst": 7820,
      "Ġslippin": 7821,
      "Ġvalentine": 7822,
      "Ġoriginal": 7823,
      "Ġskirt": 7824,
      "Ġheadlights": 7825,
      "Ġguiding": 7826,
      "lesh": 7827,
      "Ġtread": 7828,
      "Ġprayin": 7829,
      "ĠOk": 7830,
      "Ġmarket": 7831,
      "Ġdecisions": 7832,
      "Ġinsanity": 7833,
      "unted": 7834,
      "Ġfootball": 7835,
      "Lean": 7836,
      "Ġaddress": 7837,
      "Ġeighty": 7838,
      "ĠManhattan": 7839,
      "Ġgentlemen": 7840,
      "ĠĠĠĠĠĠĠĠĠĠĠĠĠĠĠĠ": 7841,
      "Write": 7842,
      "iiii": 7843,
      "emption": 7844,
      "Ġsouvenir": 7845,
      "ursday": 7846,
      "Ġpleasant": 7847,
      "Ġbastard": 7848,
      "?,": 7849,
      "ET": 7850,
      "Etern": 7851,
      "Jud": 7852,
      "gonna": 7853,
      "Ġ/": 7854,
      "Ġaver": 7855,
      "Ġyay": 7856,
      "reed": 7857,
      "rection": 7858,
      "onic": 7859,
      "Ġles": 7860,
      "Ġpic": 7861,
      "Ġechoes": 7862,
      "Ġloot": 7863,
      "Ġrays": 7864,
      "eable": 7865,
      "inking": 7866,
      "Solo": 7867,
      "istry": 7868,
      "Ġagent": 7869,
      "ĠMoney": 7870,
      "ĠSay": 7871,
      "ĠDanny": 7872,
      "ĠPer": 7873,
      "Bleed": 7874,
      "Ġsealed": 7875,
      "Ġwilder": 7876,
      "Ġskinny": 7877,
      "avan": 7878,
      "Ġreading": 7879,
      "Ġsends": 7880,
      "Wasn": 7881,
      "aaa": 7882,
      "Ġexciting": 7883,
      "Ġsellin": 7884,
      "Ġdrowned": 7885,
      "Ġfactory": 7886,
      "Ġcontact": 7887,
      "Ġteenage": 7888,
      "Ġdivide": 7889,
      "Ġevidence": 7890,
      "Ġtunnel": 7891,
      "gency": 7892,
      "Ġphase": 7893,
      "Ġrespons": 7894,
      "Ġappeal": 7895,
      "Ġblossom": 7896,
      "Ġavoid": 7897,
      "Bounce": 7898,
      "Imp": 7899,
      "Jul": 7900,
      "Looked": 7901,
      "OS": 7902,
      "VER": 7903,
      "hi": 7904,
      "put": 7905,
      "Ġace": 7906,
      "Ġmia": 7907,
      "vey": 7908,
      "Ġfel": 7909,
      "Ġgoo": 7910,
      "Ġgear": 7911,
      "owed": 7912,
      "aye": 7913,
      "Ġbes": 7914,
      "Ġheights": 7915,
      "sen": 7916,
      "Ġrats": 7917,
      "omed": 7918,
      "Ġstash": 7919,
      "Ġstared": 7920,
      "Ġstorms": 7921,
      "Ġknot": 7922,
      "Ġiss": 7923,
      "Ġrend": 7924,
      "Ġrevel": 7925,
      "Ġshuffle": 7926,
      "Butter": 7927,
      "ifty": 7928,
      "Ġblank": 7929,
      "Ġblazing": 7930,
      "Ġsport": 7931,
      "ovember": 7932,
      "Ins": 7933,
      "oles": 7934,
      "Ġchi": 7935,
      "through": 7936,
      "itely": 7937,
      "ĠHawai": 7938,
      "Ġyah": 7939,
      "Ġlasting": 7940,
      "ĠRo": 7941,
      "Ġchaos": 7942,
      "uddle": 7943,
      "ĠNor": 7944,
      "ĠWord": 7945,
      "apping": 7946,
      "Ġdia": 7947,
      "Ġperman": 7948,
      "Ġchangin": 7949,
      "Ġhangs": 7950,
      "Ġmessing": 7951,
      "Ġcurious": 7952,
      "Niggaz": 7953,
      "Ġrisin": 7954,
      "Ġbooth": 7955,
      "Ġclubs": 7956,
      "Ġsquad": 7957,
      "Ġcommit": 7958,
      "Ġcontempl": 7959,
      "Ġmotiv": 7960,
      "Ġsparkle": 7961,
      "Ġerased": 7962,
      "Ġfeature": 7963,
      "Ooooh": 7964,
      "ospital": 7965,
      "levard": 7966,
      "Ġsauce": 7967,
      "Ġprincess": 7968,
      "Ġtelevision": 7969,
      "Mag": 7970,
      "Rom": 7971,
      "Wow": 7972,
      "mic": 7973,
      "mun": 7974,
      "roy": 7975,
      "Ġ..": 7976,
      "Ġmu": 7977,
      "Ġmack": 7978,
      "Ġmaint": 7979,
      "Ġbough": 7980,
      "Ġbiz": 7981,
      "Ġpause": 7982,
      "atr": 7983,
      "Ġrice": 7984,
      "Ġweh": 7985,
      "Ġjub": 7986,
      "Ġroot": 7987,
      "Whatcha": 7988,
      "Ġanyhow": 7989,
      "ĠLady": 7990,
      "ĠBoo": 7991,
      "ĠBall": 7992,
      "ĠTell": 7993,
      "Ġtoug": 7994,
      "ĠKong": 7995,
      "Ġblinds": 7996,
      "ĠYo": 7997,
      "Train": 7998,
      "Ġsupport": 7999
    },
    "merges": [
      [
        "Ġ",
        "t"
      ],
      [
        "h",
        "e"
      ],
      [
        "o",
        "u"
      ],
      [
        "i",
        "n"
      ],
      [
        "Ġ",
        "a"
      ],
      [
        "Ġ",
        "s"
      ],
      [
        "Ġ",
        "w"
      ],
      [
        "Ġ",
        "m"
      ],
      [
        "Ġ",
        "y"
      ],
      [
        "r",
        "e"
      ],
      [
        "o",
        "n"
      ],
      [
        "Ġt",
        "he"
      ],
      [
        "Ġy",
        "ou"
      ],
      [
        "Ġ",
        "b"
      ],
      [
        "v",
        "e"
      ],
      [
        "Ġ",
        "l"
      ],
      [
        "n",
        "d"
      ],
      [
        "l",
        "l"
      ],
      [
        "h",
        "a"
      ],
      [
        "Ġ",
        "d"
      ],
      [
        "Ġ",
        "f"
      ],
      [
        "Ġ",
        "c"
      ],
      [
        "i",
        "t"
      ],
      [
        "in",
        "g"
      ],
      [
        "Ġ",
        "I"
      ],
      [
        "Ġ",
        "g"
      ],
      [
        "Ġt",
        "o"
      ],
      [
        "o",
        "w"
      ],
      [
        "Ġ",
        "n"
      ],
      [
        "a",
        "n"
      ],
      [
        "o",
        "r"
      ],
      [
        "i",
        "s"
      ],
      [
        "m",
        "e"
      ],
      [
        "Ġm",
        "e"
      ],
      [
        "a",
        "y"
      ],
      [
        "e",
        "e"
      ],
      [
        "Ġ",
        "o"
      ],
      [
        "a",
        "r"
      ],
      [
        "ha",
        "t"
      ],
      [
        "k",
        "e"
      ],
      [
        "Ġ",
        "p"
      ],
      [
        "s",
        "t"
      ],
      [
        "e",
        "r"
      ],
      [
        "'",
        "s"
      ],
      [
        "g",
        "h"
      ],
      [
        "Ġ",
        "in"
      ],
      [
        "Ġb",
        "e"
      ],
      [
        "o",
        "t"
      ],
      [
        "Ġ",
        "it"
      ],
      [
        "'",
        "t"
      ],
      [
        "Ġa",
        "nd"
      ],
      [
        "Ġ",
        "on"
      ],
      [
        "Ġ",
        "he"
      ],
      [
        "Ġm",
        "y"
      ],
      [
        "e",
        "s"
      ],
      [
        "Ġ",
        "h"
      ],
      [
        "e",
        "t"
      ],
      [
        "ve",
        "r"
      ],
      [
        "s",
        "e"
      ],
      [
        "Ġo",
        "f"
      ],
      [
        "Ġt",
        "h"
      ],
      [
        "Ġ",
        "e"
      ],
      [
        "l",
        "d"
      ],
      [
        "Ġl",
        "o"
      ],
      [
        "Ġ",
        "k"
      ],
      [
        "gh",
        "t"
      ],
      [
        "l",
        "e"
      ],
      [
        "Ġl",
        "i"
      ],
      [
        "a",
        "t"
      ],
      [
        "Ġ",
        "r"
      ],
      [
        "o",
        "me"
      ],
      [
        "A",
        "nd"
      ],
      [
        "Ġs",
        "t"
      ],
      [
        "u",
        "t"
      ],
      [
        "Ġt",
        "hat"
      ],
      [
        "Ġyou",
        "r"
      ],
      [
        "Ġ",
        "ha"
      ],
      [
        "Ġ",
        "u"
      ],
      [
        "a",
        "c"
      ],
      [
        "'",
        "m"
      ],
      [
        "Y",
        "ou"
      ],
      [
        "i",
        "d"
      ],
      [
        "Ġw",
        "e"
      ],
      [
        "i",
        "ght"
      ],
      [
        "a",
        "s"
      ],
      [
        "a",
        "d"
      ],
      [
        "e",
        "d"
      ],
      [
        "T",
        "he"
      ],
      [
        "o",
        "o"
      ],
      [
        "Ġk",
        "n"
      ],
      [
        "Ġf",
        "or"
      ],
      [
        "i",
        "ll"
      ],
      [
        "Ġ",
        "is"
      ],
      [
        "Ġlo",
        "ve"
      ],
      [
        "ou",
        "t"
      ],
      [
        "Ġc",
        "an"
      ],
      [
        "u",
        "st"
      ],
      [
        "a",
        "ke"
      ],
      [
        "it",
        "h"
      ],
      [
        "Ġa",
        "ll"
      ],
      [
        "a",
        "l"
      ],
      [
        "Ġkn",
        "ow"
      ],
      [
        "o",
        "m"
      ],
      [
        "i",
        "c"
      ],
      [
        "Ġ",
        "re"
      ],
      [
        "i",
        "r"
      ],
      [
        "on",
        "e"
      ],
      [
        "Ġd",
        "o"
      ],
      [
        "Ġ",
        "j"
      ],
      [
        "e",
        "a"
      ],
      [
        "e",
        "n"
      ],
      [
        "a",
        "ll"
      ],
      [
        "Ġw",
        "ith"
      ],
      [
        "he",
        "n"
      ],
      [
        "Ġg",
        "o"
      ],
      [
        "ow",
        "n"
      ],
      [
        "l",
        "y"
      ],
      [
        "'",
        "re"
      ],
      [
        "ar",
        "t"
      ],
      [
        "i",
        "me"
      ],
      [
        "Ġs",
        "o"
      ],
      [
        "in",
        "d"
      ],
      [
        "Ġu",
        "p"
      ],
      [
        "u",
        "r"
      ],
      [
        "ou",
        "ld"
      ],
      [
        "an",
        "t"
      ],
      [
        "Ġd",
        "on"
      ],
      [
        "Ġli",
        "ke"
      ],
      [
        "a",
        "in"
      ],
      [
        "u",
        "n"
      ],
      [
        "'",
        "ll"
      ],
      [
        "Ġg",
        "ot"
      ],
      [
        "a",
        "b"
      ],
      [
        "Ġn",
        "e"
      ],
      [
        "c",
        "h"
      ],
      [
        "Ġn",
        "o"
      ],
      [
        "Ġs",
        "ee"
      ],
      [
        "on",
        "g"
      ],
      [
        "o",
        "re"
      ],
      [
        "e",
        "ll"
      ],
      [
        "i",
        "e"
      ],
      [
        "Ġt",
        "r"
      ],
      [
        "a",
        "u"
      ],
      [
        "Ġg",
        "et"
      ],
      [
        "Ġj",
        "ust"
      ],
      [
        "Ġs",
        "h"
      ],
      [
        "B",
        "ut"
      ],
      [
        "Ġw",
        "hat"
      ],
      [
        "o",
        "p"
      ],
      [
        "r",
        "ou"
      ],
      [
        "he",
        "r"
      ],
      [
        "ac",
        "k"
      ],
      [
        "w",
        "ay"
      ],
      [
        "Ġ",
        "out"
      ],
      [
        "Ġth",
        "is"
      ],
      [
        "a",
        "m"
      ],
      [
        "Ġw",
        "h"
      ],
      [
        "h",
        "ing"
      ],
      [
        "Ġn",
        "ot"
      ],
      [
        "i",
        "f"
      ],
      [
        "Ġa",
        "n"
      ],
      [
        "Ġf",
        "r"
      ],
      [
        "I",
        "t"
      ],
      [
        "n",
        "a"
      ],
      [
        "Ġt",
        "ime"
      ],
      [
        "ver",
        "y"
      ],
      [
        "Ġw",
        "ant"
      ],
      [
        "Ġw",
        "as"
      ],
      [
        "Ġw",
        "or"
      ],
      [
        "Ġd",
        "own"
      ],
      [
        "c",
        "k"
      ],
      [
        "c",
        "e"
      ],
      [
        "'",
        "ve"
      ],
      [
        "i",
        "on"
      ],
      [
        "Ġa",
        "l"
      ],
      [
        "n",
        "t"
      ],
      [
        "Ġf",
        "ee"
      ],
      [
        "u",
        "s"
      ],
      [
        "Ġs",
        "ome"
      ],
      [
        "ab",
        "y"
      ],
      [
        "id",
        "e"
      ],
      [
        "i",
        "ve"
      ],
      [
        "a",
        "nd"
      ],
      [
        "o",
        "d"
      ],
      [
        "Ġon",
        "e"
      ],
      [
        "a",
        "me"
      ],
      [
        "i",
        "g"
      ],
      [
        "au",
        "se"
      ],
      [
        "Ġa",
        "re"
      ],
      [
        "i",
        "l"
      ],
      [
        "Ġn",
        "ow"
      ],
      [
        "Ġb",
        "l"
      ],
      [
        "W",
        "e"
      ],
      [
        "t",
        "er"
      ],
      [
        "ee",
        "p"
      ],
      [
        "oo",
        "d"
      ],
      [
        "Ġfee",
        "l"
      ],
      [
        "Ġs",
        "ay"
      ],
      [
        "e",
        "ar"
      ],
      [
        "Ġne",
        "ver"
      ],
      [
        "Ġa",
        "s"
      ],
      [
        "Ġha",
        "ve"
      ],
      [
        "Ġw",
        "ill"
      ],
      [
        "he",
        "re"
      ],
      [
        "in",
        "e"
      ],
      [
        "f",
        "e"
      ],
      [
        "Ġw",
        "ay"
      ],
      [
        "Ġ",
        "("
      ],
      [
        "Ġw",
        "hen"
      ],
      [
        "ea",
        "h"
      ],
      [
        "i",
        "m"
      ],
      [
        "Ġc",
        "r"
      ],
      [
        "Ġc",
        "ome"
      ],
      [
        "H",
        "e"
      ],
      [
        "Ġthe",
        "y"
      ],
      [
        "ee",
        "d"
      ],
      [
        "Ġthe",
        "re"
      ],
      [
        "Ġa",
        "t"
      ],
      [
        "Ġd",
        "ay"
      ],
      [
        "Ġm",
        "ake"
      ],
      [
        "O",
        "h"
      ],
      [
        "a",
        "st"
      ],
      [
        "Ġs",
        "he"
      ],
      [
        "Ġb",
        "aby"
      ],
      [
        "Ġhe",
        "art"
      ],
      [
        "Ġhe",
        "r"
      ],
      [
        "in",
        "k"
      ],
      [
        "ha",
        "n"
      ],
      [
        "ee",
        "n"
      ],
      [
        "g",
        "e"
      ],
      [
        "S",
        "o"
      ],
      [
        "u",
        "m"
      ],
      [
        "ac",
        "e"
      ],
      [
        "Ġfr",
        "om"
      ],
      [
        "ou",
        "r"
      ],
      [
        "W",
        "hen"
      ],
      [
        "Ġb",
        "ack"
      ],
      [
        "Ġs",
        "a"
      ],
      [
        "Ġp",
        "l"
      ],
      [
        "p",
        "p"
      ],
      [
        ".",
        "."
      ],
      [
        "Ġm",
        "an"
      ],
      [
        "es",
        "s"
      ],
      [
        "Ġe",
        "very"
      ],
      [
        "Ġl",
        "et"
      ],
      [
        "t",
        "hing"
      ],
      [
        "u",
        "e"
      ],
      [
        "Ġd",
        "e"
      ],
      [
        "o",
        "k"
      ],
      [
        "Ġb",
        "r"
      ],
      [
        "ur",
        "n"
      ],
      [
        "Ġn",
        "eed"
      ],
      [
        "on",
        "na"
      ],
      [
        "Ġa",
        "way"
      ],
      [
        "it",
        "t"
      ],
      [
        "Ġb",
        "ut"
      ],
      [
        "Ġt",
        "ake"
      ],
      [
        "Ġs",
        "p"
      ],
      [
        "Ġn",
        "ight"
      ],
      [
        "T",
        "hat"
      ],
      [
        "al",
        "k"
      ],
      [
        "Ġc",
        "ould"
      ],
      [
        "o",
        "ld"
      ],
      [
        "rou",
        "nd"
      ],
      [
        "T",
        "h"
      ],
      [
        "Ġli",
        "fe"
      ],
      [
        "od",
        "y"
      ],
      [
        "Ġo",
        "h"
      ],
      [
        "a",
        "k"
      ],
      [
        "is",
        "t"
      ],
      [
        "Ġa",
        "b"
      ],
      [
        "Ġ",
        "if"
      ],
      [
        "I",
        "f"
      ],
      [
        "ir",
        "l"
      ],
      [
        "Ġg",
        "onna"
      ],
      [
        "o",
        "ve"
      ],
      [
        "Ġr",
        "o"
      ],
      [
        "Ġa",
        "g"
      ],
      [
        "Ġth",
        "ing"
      ],
      [
        "W",
        "h"
      ],
      [
        "Ġhe",
        "re"
      ],
      [
        "a",
        "re"
      ],
      [
        "S",
        "he"
      ],
      [
        "Ġr",
        "ight"
      ],
      [
        "Ġb",
        "y"
      ],
      [
        "Ġb",
        "een"
      ],
      [
        "Ġp",
        "r"
      ],
      [
        "Ġd",
        "r"
      ],
      [
        "re",
        "am"
      ],
      [
        "Ġw",
        "on"
      ],
      [
        "T",
        "o"
      ],
      [
        "C",
        "h"
      ],
      [
        "ou",
        "nd"
      ],
      [
        "Ġc",
        "l"
      ],
      [
        "Ġth",
        "ink"
      ],
      [
        "Ġ",
        "'"
      ],
      [
        "Ġg",
        "ood"
      ],
      [
        "Ġwh",
        "o"
      ],
      [
        "Ġm",
        "ore"
      ],
      [
        "I",
        "n"
      ],
      [
        "Ġwor",
        "ld"
      ],
      [
        "itt",
        "le"
      ],
      [
        "Ġy",
        "eah"
      ],
      [
        "Ġe",
        "y"
      ],
      [
        "ve",
        "n"
      ],
      [
        "C",
        "ause"
      ],
      [
        "rou",
        "gh"
      ],
      [
        "r",
        "y"
      ],
      [
        "Ġlo",
        "ok"
      ],
      [
        "Ġg",
        "irl"
      ],
      [
        "O",
        "n"
      ],
      [
        "i",
        "le"
      ],
      [
        "Ġag",
        "ain"
      ],
      [
        "u",
        "re"
      ],
      [
        "Ġh",
        "ow"
      ],
      [
        "Ġt",
        "ell"
      ],
      [
        "v",
        "ing"
      ],
      [
        "o",
        "se"
      ],
      [
        "'",
        "d"
      ],
      [
        "A",
        "ll"
      ],
      [
        "b",
        "ody"
      ],
      [
        "Ġ",
        "M"
      ],
      [
        "D",
        "on"
      ],
      [
        "ot",
        "her"
      ],
      [
        "u",
        "ck"
      ],
      [
        "o",
        "l"
      ],
      [
        "Ġ",
        "S"
      ],
      [
        "The",
        "re"
      ],
      [
        "Ġto",
        "o"
      ],
      [
        "Ġl",
        "ittle"
      ],
      [
        "c",
        "t"
      ],
      [
        "Ġab",
        "out"
      ],
      [
        "o",
        "s"
      ],
      [
        "N",
        "o"
      ],
      [
        "Ġl",
        "ong"
      ],
      [
        "o",
        "y"
      ],
      [
        "Ġa",
        "in"
      ],
      [
        "Ġ",
        "our"
      ],
      [
        "M",
        "y"
      ],
      [
        "Ġth",
        "rough"
      ],
      [
        "e",
        "l"
      ],
      [
        "ic",
        "k"
      ],
      [
        "W",
        "hat"
      ],
      [
        "Ġs",
        "w"
      ],
      [
        "Ġf",
        "l"
      ],
      [
        "N",
        "ow"
      ],
      [
        "at",
        "e"
      ],
      [
        "Ġhe",
        "ar"
      ],
      [
        "a",
        "g"
      ],
      [
        "Ġs",
        "l"
      ],
      [
        "re",
        "e"
      ],
      [
        "is",
        "s"
      ],
      [
        "Ġg",
        "ive"
      ],
      [
        "Ġon",
        "ly"
      ],
      [
        "Ġu",
        "s"
      ],
      [
        "Ġey",
        "es"
      ],
      [
        "Ġ",
        "v"
      ],
      [
        "Ġg",
        "r"
      ],
      [
        "i",
        "es"
      ],
      [
        "Ġl",
        "e"
      ],
      [
        "Ġw",
        "ould"
      ],
      [
        "i",
        "re"
      ],
      [
        "Ġa",
        "round"
      ],
      [
        "J",
        "ust"
      ],
      [
        "Ġ",
        "or"
      ],
      [
        "u",
        "l"
      ],
      [
        "Ġh",
        "ome"
      ],
      [
        "Ġk",
        "eep"
      ],
      [
        "Ġw",
        "here"
      ],
      [
        "Ġc",
        "h"
      ],
      [
        "er",
        "s"
      ],
      [
        "Ġan",
        "y"
      ],
      [
        "Ġo",
        "ver"
      ],
      [
        "Ġd",
        "ream"
      ],
      [
        "Ġsa",
        "id"
      ],
      [
        "nd",
        "er"
      ],
      [
        "S",
        "ome"
      ],
      [
        "Ġa",
        "m"
      ],
      [
        "Ġha",
        "d"
      ],
      [
        "Ġw",
        "a"
      ],
      [
        "Ġbe",
        "l"
      ],
      [
        "a",
        "p"
      ],
      [
        "Ġ",
        "L"
      ],
      [
        "Ġm",
        "ind"
      ],
      [
        "l",
        "f"
      ],
      [
        "Ġ",
        "B"
      ],
      [
        "Ġb",
        "re"
      ],
      [
        "t",
        "h"
      ],
      [
        "Ġf",
        "ind"
      ],
      [
        "Ġst",
        "r"
      ],
      [
        "Ġc",
        "om"
      ],
      [
        "Ġh",
        "is"
      ],
      [
        "Ġha",
        "nd"
      ],
      [
        "ou",
        "gh"
      ],
      [
        "Ġwe",
        "re"
      ],
      [
        "The",
        "y"
      ],
      [
        "ig",
        "g"
      ],
      [
        "way",
        "s"
      ],
      [
        "u",
        "ch"
      ],
      [
        "Ġl",
        "ea"
      ],
      [
        "Ġtr",
        "y"
      ],
      [
        "Ġbe",
        "t"
      ],
      [
        "all",
        "y"
      ],
      [
        "or",
        "n"
      ],
      [
        "Ġe",
        "ver"
      ],
      [
        "or",
        "us"
      ],
      [
        "Ġ",
        "G"
      ],
      [
        "Ġc",
        "han"
      ],
      [
        "Ġr",
        "un"
      ],
      [
        "Ġs",
        "ha"
      ],
      [
        "en",
        "t"
      ],
      [
        "Ġst",
        "ill"
      ],
      [
        "se",
        "d"
      ],
      [
        "i",
        "p"
      ],
      [
        "Ġli",
        "ght"
      ],
      [
        "an",
        "na"
      ],
      [
        "o",
        "ke"
      ],
      [
        "S",
        "t"
      ],
      [
        "Ġc",
        "all"
      ],
      [
        "ad",
        "e"
      ],
      [
        "d",
        "s"
      ],
      [
        "Ch",
        "orus"
      ],
      [
        "Ġt",
        "urn"
      ],
      [
        "t",
        "a"
      ],
      [
        "Ġs",
        "e"
      ],
      [
        "Ġf",
        "all"
      ],
      [
        "s",
        "ide"
      ],
      [
        "Ġd",
        "id"
      ],
      [
        "F",
        "or"
      ],
      [
        "Ġli",
        "ve"
      ],
      [
        "ic",
        "e"
      ],
      [
        "L",
        "et"
      ],
      [
        "t",
        "o"
      ],
      [
        "W",
        "ith"
      ],
      [
        "f",
        "t"
      ],
      [
        "at",
        "ion"
      ],
      [
        "o",
        "h"
      ],
      [
        "Ġw",
        "anna"
      ],
      [
        "Ġw",
        "r"
      ],
      [
        "Ġc",
        "on"
      ],
      [
        "a",
        "ve"
      ],
      [
        "Ġthe",
        "m"
      ],
      [
        "Ġs",
        "m"
      ],
      [
        "E",
        "very"
      ],
      [
        "is",
        "e"
      ],
      [
        "W",
        "ell"
      ],
      [
        "Ġl",
        "a"
      ],
      [
        "Ġal",
        "ways"
      ],
      [
        "Ġm",
        "o"
      ],
      [
        "se",
        "lf"
      ],
      [
        "Th",
        "is"
      ],
      [
        "ie",
        "ve"
      ],
      [
        "t",
        "y"
      ],
      [
        "c",
        "ause"
      ],
      [
        "d",
        "ay"
      ],
      [
        "b",
        "er"
      ],
      [
        "Ġ",
        "C"
      ],
      [
        "q",
        "u"
      ],
      [
        "Ġ",
        "J"
      ],
      [
        "g",
        "et"
      ],
      [
        "Ġwa",
        "it"
      ],
      [
        "Ġof",
        "f"
      ],
      [
        "Ġh",
        "old"
      ],
      [
        "a",
        "se"
      ],
      [
        "Ġs",
        "k"
      ],
      [
        "Ġthing",
        "s"
      ],
      [
        "oo",
        "l"
      ],
      [
        "Ġha",
        "r"
      ],
      [
        "Ġp",
        "e"
      ],
      [
        "Ġs",
        "c"
      ],
      [
        "an",
        "g"
      ],
      [
        "Ġs",
        "un"
      ],
      [
        "i",
        "gh"
      ],
      [
        "i",
        "ed"
      ],
      [
        "a",
        "z"
      ],
      [
        "e",
        "m"
      ],
      [
        "Ġg",
        "one"
      ],
      [
        "i",
        "ld"
      ],
      [
        "at",
        "ch"
      ],
      [
        "Ġt",
        "han"
      ],
      [
        "Ġpl",
        "ay"
      ],
      [
        "m",
        "s"
      ],
      [
        "..",
        "."
      ],
      [
        "u",
        "ll"
      ],
      [
        "Ġhe",
        "ad"
      ],
      [
        "n",
        "g"
      ],
      [
        "e",
        "w"
      ],
      [
        "Ġh",
        "im"
      ],
      [
        "Ġ",
        "A"
      ],
      [
        "f",
        "ore"
      ],
      [
        "Ġw",
        "alk"
      ],
      [
        "ie",
        "nd"
      ],
      [
        "Ġwh",
        "y"
      ],
      [
        "b",
        "le"
      ],
      [
        "i",
        "ke"
      ],
      [
        "Ġthe",
        "n"
      ],
      [
        "Y",
        "eah"
      ],
      [
        "one",
        "y"
      ],
      [
        "Ġ",
        "D"
      ],
      [
        "ou",
        "s"
      ],
      [
        "it",
        "e"
      ],
      [
        "ou",
        "ght"
      ],
      [
        "Ġm",
        "uch"
      ],
      [
        "ac",
        "h"
      ],
      [
        "Ġbel",
        "ieve"
      ],
      [
        "ke",
        "d"
      ],
      [
        "Ġo",
        "ld"
      ],
      [
        "You",
        "r"
      ],
      [
        "Ġ",
        "H"
      ],
      [
        "an",
        "ce"
      ],
      [
        "d",
        "er"
      ],
      [
        "o",
        "ll"
      ],
      [
        "ee",
        "t"
      ],
      [
        "Ġbet",
        "ter"
      ],
      [
        "Ġlea",
        "ve"
      ],
      [
        "Ġe",
        "nd"
      ],
      [
        "Ġnot",
        "hing"
      ],
      [
        "Ġt",
        "w"
      ],
      [
        "is",
        "h"
      ],
      [
        "oo",
        "k"
      ],
      [
        "ear",
        "s"
      ],
      [
        "re",
        "t"
      ],
      [
        "it",
        "y"
      ],
      [
        "Ġs",
        "ing"
      ],
      [
        "on",
        "ight"
      ],
      [
        "as",
        "s"
      ],
      [
        "B",
        "e"
      ],
      [
        "Ġcr",
        "y"
      ],
      [
        "Ġy",
        "a"
      ],
      [
        "b",
        "e"
      ],
      [
        "Ġn",
        "igg"
      ],
      [
        "Ġb",
        "oy"
      ],
      [
        "Ġst",
        "op"
      ],
      [
        "Ġin",
        "to"
      ],
      [
        "Ġal",
        "one"
      ],
      [
        "Ġsh",
        "ould"
      ],
      [
        "op",
        "le"
      ],
      [
        "or",
        "d"
      ],
      [
        "H",
        "ow"
      ],
      [
        "at",
        "h"
      ],
      [
        "Ġre",
        "ally"
      ],
      [
        "Ġu",
        "nder"
      ],
      [
        "Ġst",
        "ay"
      ],
      [
        "Ġg",
        "u"
      ],
      [
        "Ġe",
        "n"
      ],
      [
        "Ġs",
        "u"
      ],
      [
        "ar",
        "k"
      ],
      [
        "Ġhar",
        "d"
      ],
      [
        "r",
        "ow"
      ],
      [
        "ad",
        "y"
      ],
      [
        "t",
        "ing"
      ],
      [
        "Ġre",
        "al"
      ],
      [
        "e",
        "ver"
      ],
      [
        "Ġfr",
        "iend"
      ],
      [
        "Ġst",
        "art"
      ],
      [
        "Ġha",
        "pp"
      ],
      [
        "Ġc",
        "are"
      ],
      [
        "p",
        "e"
      ],
      [
        "Ġf",
        "ace"
      ],
      [
        "o",
        "ck"
      ],
      [
        "Ġt",
        "alk"
      ],
      [
        "n",
        "ing"
      ],
      [
        "s",
        "s"
      ],
      [
        "a",
        "h"
      ],
      [
        "Wh",
        "o"
      ],
      [
        "Ġsh",
        "ow"
      ],
      [
        "D",
        "o"
      ],
      [
        "Ġbre",
        "ak"
      ],
      [
        "t",
        "her"
      ],
      [
        "Ġs",
        "ong"
      ],
      [
        "le",
        "ase"
      ],
      [
        "Ġa",
        "r"
      ],
      [
        "Ġne",
        "w"
      ],
      [
        "Ġm",
        "ade"
      ],
      [
        "Ġst",
        "and"
      ],
      [
        "Ġle",
        "ft"
      ],
      [
        "Ġr",
        "ain"
      ],
      [
        "v",
        "in"
      ],
      [
        "C",
        "an"
      ],
      [
        "C",
        "ome"
      ],
      [
        "Ġ",
        "T"
      ],
      [
        "re",
        "d"
      ],
      [
        "ar",
        "s"
      ],
      [
        "Ġb",
        "it"
      ],
      [
        "I",
        "s"
      ],
      [
        "Ġgot",
        "ta"
      ],
      [
        "L",
        "ike"
      ],
      [
        "Ġpl",
        "ace"
      ],
      [
        "Ġl",
        "ast"
      ],
      [
        "Ġt",
        "onight"
      ],
      [
        "Ġn",
        "ame"
      ],
      [
        "Ġa",
        "f"
      ],
      [
        "w",
        "n"
      ],
      [
        "Ġgo",
        "ing"
      ],
      [
        "Ġsome",
        "thing"
      ],
      [
        "Ġbe",
        "fore"
      ],
      [
        "Ġ",
        "R"
      ],
      [
        "W",
        "here"
      ],
      [
        "Ġm",
        "ay"
      ],
      [
        "Ġe",
        "x"
      ],
      [
        "ou",
        "l"
      ],
      [
        "Ġm",
        "ine"
      ],
      [
        "Ġpe",
        "ople"
      ],
      [
        "Ġin",
        "side"
      ],
      [
        "Ġha",
        "s"
      ],
      [
        "Ġe",
        "ven"
      ],
      [
        "i",
        "z"
      ],
      [
        "Ġg",
        "l"
      ],
      [
        "Ġwr",
        "ong"
      ],
      [
        "Ġ",
        "\""
      ],
      [
        "Ġsw",
        "eet"
      ],
      [
        "Ġp",
        "ut"
      ],
      [
        "Ġ",
        "P"
      ],
      [
        "Ġevery",
        "thing"
      ],
      [
        "n",
        "y"
      ],
      [
        "Ġh",
        "igh"
      ],
      [
        "Ġthe",
        "se"
      ],
      [
        "ar",
        "d"
      ],
      [
        "Ġth",
        "ought"
      ],
      [
        "Ġthe",
        "ir"
      ],
      [
        "Ġf",
        "ree"
      ],
      [
        "Ġh",
        "op"
      ],
      [
        "m",
        "ber"
      ],
      [
        "os",
        "s"
      ],
      [
        "Wh",
        "y"
      ],
      [
        "A",
        "s"
      ],
      [
        "Ġu",
        "n"
      ],
      [
        "Ġs",
        "oul"
      ],
      [
        "Ġc",
        "ha"
      ],
      [
        "Ġan",
        "other"
      ],
      [
        "Ġtr",
        "ue"
      ],
      [
        "r",
        "a"
      ],
      [
        "Ġ",
        "own"
      ],
      [
        "Ġw",
        "ind"
      ],
      [
        "The",
        "n"
      ],
      [
        "B",
        "aby"
      ],
      [
        "F",
        "r"
      ],
      [
        "Ġ",
        "qu"
      ],
      [
        "Ġs",
        "ame"
      ],
      [
        "Ġo",
        "ther"
      ],
      [
        "He",
        "y"
      ],
      [
        "R",
        "e"
      ],
      [
        "t",
        "ime"
      ],
      [
        "On",
        "e"
      ],
      [
        "Ġst",
        "re"
      ],
      [
        "Ġme",
        "an"
      ],
      [
        "Ġfeel",
        "ing"
      ],
      [
        "Ġg",
        "re"
      ],
      [
        "Ġlo",
        "st"
      ],
      [
        "Ġp",
        "art"
      ],
      [
        "ou",
        "nt"
      ],
      [
        "Ġb",
        "ad"
      ],
      [
        "oo",
        "m"
      ],
      [
        "m",
        "or"
      ],
      [
        "he",
        "s"
      ],
      [
        "o",
        "c"
      ],
      [
        "Ġf",
        "uck"
      ],
      [
        "p",
        "l"
      ],
      [
        "Ġp",
        "ain"
      ],
      [
        "me",
        "mber"
      ],
      [
        "L",
        "ove"
      ],
      [
        "e",
        "st"
      ],
      [
        "Ġf",
        "ar"
      ],
      [
        "T",
        "ake"
      ],
      [
        "l",
        "ing"
      ],
      [
        "Ġb",
        "u"
      ],
      [
        "n",
        "ess"
      ],
      [
        "Ġf",
        "ire"
      ],
      [
        "me",
        "r"
      ],
      [
        "Ġs",
        "ide"
      ],
      [
        "Ġ",
        "-"
      ],
      [
        "Ġc",
        "ar"
      ],
      [
        "Ġk",
        "iss"
      ],
      [
        "Ġbl",
        "ue"
      ],
      [
        "ore",
        "ver"
      ],
      [
        "Ġd",
        "one"
      ],
      [
        "Ġday",
        "s"
      ],
      [
        "Ġd",
        "ie"
      ],
      [
        "Ġd",
        "a"
      ],
      [
        "N",
        "ot"
      ],
      [
        "Ġb",
        "urn"
      ],
      [
        "Ġh",
        "ur"
      ],
      [
        "Ġmy",
        "self"
      ],
      [
        "Ġf",
        "a"
      ],
      [
        "G",
        "ot"
      ],
      [
        "y",
        "e"
      ],
      [
        "Ġdo",
        "or"
      ],
      [
        "Ġchan",
        "ge"
      ],
      [
        "he",
        "d"
      ],
      [
        "a",
        "ge"
      ],
      [
        "o",
        "st"
      ],
      [
        "G",
        "et"
      ],
      [
        "f",
        "f"
      ],
      [
        "Ġm",
        "ust"
      ],
      [
        "Ġm",
        "oney"
      ],
      [
        "Ġf",
        "ound"
      ],
      [
        "l",
        "p"
      ],
      [
        "Ġro",
        "ck"
      ],
      [
        "Ġc",
        "he"
      ],
      [
        "Ġro",
        "ll"
      ],
      [
        "ak",
        "ing"
      ],
      [
        "get",
        "her"
      ],
      [
        "p",
        "er"
      ],
      [
        "Ġf",
        "ly"
      ],
      [
        "at",
        "er"
      ],
      [
        "at",
        "her"
      ],
      [
        "Ġsk",
        "y"
      ],
      [
        "Ġtw",
        "o"
      ],
      [
        "Ġe",
        "m"
      ],
      [
        "ĠG",
        "od"
      ],
      [
        "Ġen",
        "ough"
      ],
      [
[...]
